{
  "stoi": {
    "<pad>": 0,
    "<bos>": 1,
    "<eos>": 2,
    "<unk>": 3,
    "\n": 4,
    " ": 5,
    ".": 6,
    "/": 7,
    "1": 8,
    ":": 9,
    "[": 10,
    "]": 11,
    "{": 12,
    "}": 13,
    "Н": 14,
    "ь": 15,
    "…": 16,
    "□": 17,
    "、": 18,
    "。": 19,
    "《": 20,
    "》": 21,
    "「": 22,
    "」": 23,
    "『": 24,
    "』": 25,
    "け": 26,
    "ァ": 27,
    "ホ": 28,
    "ヵ": 29,
    "ㄋ": 30,
    "㔩": 31,
    "㬠": 32,
    "㮰": 33,
    "䌨": 34,
    "䝟": 35,
    "䟃": 36,
    "䪥": 37,
    "䫻": 38,
    "䰄": 39,
    "䰒": 40,
    "一": 41,
    "丁": 42,
    "七": 43,
    "万": 44,
    "丈": 45,
    "三": 46,
    "上": 47,
    "下": 48,
    "不": 49,
    "与": 50,
    "丑": 51,
    "专": 52,
    "且": 53,
    "丕": 54,
    "世": 55,
    "丘": 56,
    "丙": 57,
    "业": 58,
    "丛": 59,
    "东": 60,
    "丝": 61,
    "丞": 62,
    "两": 63,
    "严": 64,
    "並": 65,
    "丧": 66,
    "个": 67,
    "中": 68,
    "丰": 69,
    "丱": 70,
    "串": 71,
    "临": 72,
    "丸": 73,
    "丹": 74,
    "为": 75,
    "主": 76,
    "丽": 77,
    "举": 78,
    "乃": 79,
    "久": 80,
    "么": 81,
    "义": 82,
    "之": 83,
    "乌": 84,
    "乍": 85,
    "乎": 86,
    "乏": 87,
    "乐": 88,
    "乔": 89,
    "乖": 90,
    "乘": 91,
    "乙": 92,
    "九": 93,
    "乞": 94,
    "也": 95,
    "习": 96,
    "乡": 97,
    "书": 98,
    "买": 99,
    "乱": 100,
    "乳": 101,
    "乾": 102,
    "亂": 103,
    "了": 104,
    "予": 105,
    "争": 106,
    "事": 107,
    "二": 108,
    "于": 109,
    "亏": 110,
    "云": 111,
    "互": 112,
    "五": 113,
    "井": 114,
    "亘": 115,
    "亙": 116,
    "亚": 117,
    "些": 118,
    "亞": 119,
    "亟": 120,
    "亡": 121,
    "交": 122,
    "亥": 123,
    "亦": 124,
    "产": 125,
    "亨": 126,
    "亩": 127,
    "享": 128,
    "京": 129,
    "亭": 130,
    "亮": 131,
    "亲": 132,
    "亳": 133,
    "亶": 134,
    "亸": 135,
    "人": 136,
    "亿": 137,
    "什": 138,
    "仁": 139,
    "仅": 140,
    "仆": 141,
    "仇": 142,
    "今": 143,
    "介": 144,
    "仍": 145,
    "从": 146,
    "仑": 147,
    "仓": 148,
    "仔": 149,
    "仕": 150,
    "他": 151,
    "仗": 152,
    "付": 153,
    "仙": 154,
    "仝": 155,
    "仞": 156,
    "代": 157,
    "令": 158,
    "以": 159,
    "仪": 160,
    "仰": 161,
    "仲": 162,
    "件": 163,
    "价": 164,
    "任": 165,
    "仿": 166,
    "伉": 167,
    "伊": 168,
    "伋": 169,
    "伍": 170,
    "伎": 171,
    "伏": 172,
    "伐": 173,
    "休": 174,
    "众": 175,
    "优": 176,
    "会": 177,
    "伞": 178,
    "伟": 179,
    "传": 180,
    "伤": 181,
    "伥": 182,
    "伦": 183,
    "伫": 184,
    "伯": 185,
    "估": 186,
    "伴": 187,
    "伶": 188,
    "伸": 189,
    "伺": 190,
    "似": 191,
    "但": 192,
    "佇": 193,
    "位": 194,
    "低": 195,
    "住": 196,
    "佐": 197,
    "佑": 198,
    "体": 199,
    "何": 200,
    "余": 201,
    "佚": 202,
    "佛": 203,
    "作": 204,
    "佞": 205,
    "你": 206,
    "佣": 207,
    "佩": 208,
    "佯": 209,
    "佳": 210,
    "佶": 211,
    "佾": 212,
    "使": 213,
    "侁": 214,
    "侄": 215,
    "來": 216,
    "侈": 217,
    "例": 218,
    "侍": 219,
    "侑": 220,
    "侔": 221,
    "供": 222,
    "依": 223,
    "侠": 224,
    "侣": 225,
    "侧": 226,
    "侪": 227,
    "侬": 228,
    "侮": 229,
    "侯": 230,
    "侵": 231,
    "侶": 232,
    "便": 233,
    "係": 234,
    "促": 235,
    "俄": 236,
    "俊": 237,
    "俎": 238,
    "俏": 239,
    "俐": 240,
    "俑": 241,
    "俔": 242,
    "俗": 243,
    "俘": 244,
    "俛": 245,
    "保": 246,
    "俟": 247,
    "俠": 248,
    "信": 249,
    "俦": 250,
    "俨": 251,
    "修": 252,
    "俯": 253,
    "俱": 254,
    "俶": 255,
    "俺": 256,
    "俾": 257,
    "倆": 258,
    "倉": 259,
    "倍": 260,
    "倏": 261,
    "倒": 262,
    "倖": 263,
    "倘": 264,
    "候": 265,
    "倚": 266,
    "倜": 267,
    "借": 268,
    "倡": 269,
    "倢": 270,
    "倥": 271,
    "倦": 272,
    "倩": 273,
    "倪": 274,
    "倫": 275,
    "债": 276,
    "值": 277,
    "倾": 278,
    "偃": 279,
    "假": 280,
    "偈": 281,
    "偉": 282,
    "偎": 283,
    "偏": 284,
    "偕": 285,
    "做": 286,
    "停": 287,
    "健": 288,
    "偪": 289,
    "偬": 290,
    "側": 291,
    "偶": 292,
    "偷": 293,
    "偽": 294,
    "偿": 295,
    "傅": 296,
    "傍": 297,
    "傑": 298,
    "備": 299,
    "傥": 300,
    "储": 301,
    "催": 302,
    "傲": 303,
    "傳": 304,
    "債": 305,
    "傷": 306,
    "傾": 307,
    "像": 308,
    "僕": 309,
    "僚": 310,
    "僛": 311,
    "僝": 312,
    "僞": 313,
    "僧": 314,
    "僨": 315,
    "僩": 316,
    "僭": 317,
    "僮": 318,
    "僵": 319,
    "價": 320,
    "僻": 321,
    "僽": 322,
    "僾": 323,
    "儀": 324,
    "儂": 325,
    "億": 326,
    "儉": 327,
    "儐": 328,
    "儒": 329,
    "儔": 330,
    "儕": 331,
    "儛": 332,
    "優": 333,
    "儲": 334,
    "儷": 335,
    "儻": 336,
    "儼": 337,
    "儿": 338,
    "兀": 339,
    "允": 340,
    "元": 341,
    "兄": 342,
    "充": 343,
    "兆": 344,
    "兇": 345,
    "先": 346,
    "光": 347,
    "克": 348,
    "免": 349,
    "兑": 350,
    "兒": 351,
    "兔": 352,
    "兕": 353,
    "党": 354,
    "兜": 355,
    "兢": 356,
    "入": 357,
    "內": 358,
    "全": 359,
    "兩": 360,
    "八": 361,
    "公": 362,
    "六": 363,
    "兮": 364,
    "兰": 365,
    "共": 366,
    "关": 367,
    "兴": 368,
    "兵": 369,
    "其": 370,
    "具": 371,
    "典": 372,
    "兹": 373,
    "养": 374,
    "兼": 375,
    "兽": 376,
    "冀": 377,
    "内": 378,
    "冈": 379,
    "冉": 380,
    "冊": 381,
    "册": 382,
    "再": 383,
    "冒": 384,
    "冕": 385,
    "冗": 386,
    "写": 387,
    "军": 388,
    "农": 389,
    "冠": 390,
    "冢": 391,
    "冤": 392,
    "冥": 393,
    "冪": 394,
    "冬": 395,
    "冯": 396,
    "冰": 397,
    "冱": 398,
    "冲": 399,
    "决": 400,
    "况": 401,
    "冶": 402,
    "冷": 403,
    "冻": 404,
    "冽": 405,
    "净": 406,
    "凄": 407,
    "准": 408,
    "凉": 409,
    "凋": 410,
    "凌": 411,
    "凍": 412,
    "减": 413,
    "凑": 414,
    "凘": 415,
    "凛": 416,
    "凜": 417,
    "凝": 418,
    "几": 419,
    "凡": 420,
    "凤": 421,
    "凫": 422,
    "凭": 423,
    "凯": 424,
    "凰": 425,
    "凱": 426,
    "凶": 427,
    "出": 428,
    "击": 429,
    "函": 430,
    "凿": 431,
    "刀": 432,
    "刁": 433,
    "刃": 434,
    "分": 435,
    "切": 436,
    "刈": 437,
    "刑": 438,
    "划": 439,
    "刖": 440,
    "列": 441,
    "刘": 442,
    "则": 443,
    "刚": 444,
    "刜": 445,
    "初": 446,
    "判": 447,
    "別": 448,
    "利": 449,
    "别": 450,
    "刮": 451,
    "到": 452,
    "刳": 453,
    "制": 454,
    "刷": 455,
    "刹": 456,
    "刺": 457,
    "刻": 458,
    "則": 459,
    "削": 460,
    "前": 461,
    "剎": 462,
    "剑": 463,
    "剔": 464,
    "剖": 465,
    "剗": 466,
    "剛": 467,
    "剜": 468,
    "剡": 469,
    "剥": 470,
    "剧": 471,
    "剩": 472,
    "剪": 473,
    "副": 474,
    "割": 475,
    "創": 476,
    "劃": 477,
    "劇": 478,
    "劈": 479,
    "劉": 480,
    "劍": 481,
    "劒": 482,
    "力": 483,
    "劝": 484,
    "办": 485,
    "功": 486,
    "加": 487,
    "务": 488,
    "劣": 489,
    "动": 490,
    "助": 491,
    "努": 492,
    "劫": 493,
    "励": 494,
    "劲": 495,
    "劳": 496,
    "効": 497,
    "势": 498,
    "勁": 499,
    "勃": 500,
    "勇": 501,
    "勉": 502,
    "勋": 503,
    "勍": 504,
    "勒": 505,
    "動": 506,
    "勖": 507,
    "務": 508,
    "勛": 509,
    "勝": 510,
    "勞": 511,
    "募": 512,
    "勢": 513,
    "勤": 514,
    "勩": 515,
    "勳": 516,
    "勵": 517,
    "勸": 518,
    "勺": 519,
    "勻": 520,
    "勾": 521,
    "勿": 522,
    "匀": 523,
    "包": 524,
    "匆": 525,
    "匈": 526,
    "匍": 527,
    "匏": 528,
    "匐": 529,
    "匕": 530,
    "化": 531,
    "北": 532,
    "匝": 533,
    "匠": 534,
    "匡": 535,
    "匣": 536,
    "匪": 537,
    "匱": 538,
    "匳": 539,
    "匹": 540,
    "区": 541,
    "医": 542,
    "匿": 543,
    "區": 544,
    "十": 545,
    "千": 546,
    "升": 547,
    "午": 548,
    "卉": 549,
    "半": 550,
    "华": 551,
    "卑": 552,
    "卒": 553,
    "卓": 554,
    "協": 555,
    "单": 556,
    "卖": 557,
    "南": 558,
    "博": 559,
    "卜": 560,
    "卞": 561,
    "占": 562,
    "卢": 563,
    "卦": 564,
    "卧": 565,
    "卫": 566,
    "卮": 567,
    "卯": 568,
    "印": 569,
    "危": 570,
    "即": 571,
    "却": 572,
    "卵": 573,
    "卷": 574,
    "卸": 575,
    "卻": 576,
    "卿": 577,
    "厄": 578,
    "厅": 579,
    "历": 580,
    "厉": 581,
    "压": 582,
    "厌": 583,
    "厎": 584,
    "厓": 585,
    "厚": 586,
    "原": 587,
    "厢": 588,
    "厥": 589,
    "厦": 590,
    "厨": 591,
    "厩": 592,
    "厭": 593,
    "厮": 594,
    "厲": 595,
    "去": 596,
    "县": 597,
    "参": 598,
    "參": 599,
    "叆": 600,
    "叇": 601,
    "又": 602,
    "及": 603,
    "友": 604,
    "双": 605,
    "反": 606,
    "发": 607,
    "叔": 608,
    "取": 609,
    "受": 610,
    "变": 611,
    "叙": 612,
    "叚": 613,
    "叛": 614,
    "叟": 615,
    "叠": 616,
    "叡": 617,
    "叢": 618,
    "口": 619,
    "古": 620,
    "句": 621,
    "另": 622,
    "叨": 623,
    "叩": 624,
    "只": 625,
    "叫": 626,
    "召": 627,
    "叮": 628,
    "可": 629,
    "台": 630,
    "叱": 631,
    "史": 632,
    "右": 633,
    "叵": 634,
    "叶": 635,
    "号": 636,
    "司": 637,
    "叹": 638,
    "吁": 639,
    "吃": 640,
    "各": 641,
    "合": 642,
    "吉": 643,
    "吊": 644,
    "同": 645,
    "名": 646,
    "后": 647,
    "吏": 648,
    "吐": 649,
    "向": 650,
    "吒": 651,
    "吕": 652,
    "君": 653,
    "吝": 654,
    "吞": 655,
    "吟": 656,
    "吠": 657,
    "否": 658,
    "含": 659,
    "听": 660,
    "吮": 661,
    "启": 662,
    "吳": 663,
    "吴": 664,
    "吷": 665,
    "吸": 666,
    "吹": 667,
    "吻": 668,
    "吼": 669,
    "吾": 670,
    "呀": 671,
    "呂": 672,
    "呃": 673,
    "呆": 674,
    "呈": 675,
    "告": 676,
    "呌": 677,
    "员": 678,
    "呜": 679,
    "呦": 680,
    "周": 681,
    "味": 682,
    "呵": 683,
    "呶": 684,
    "呼": 685,
    "命": 686,
    "咄": 687,
    "咆": 688,
    "和": 689,
    "咍": 690,
    "咏": 691,
    "咙": 692,
    "咛": 693,
    "咤": 694,
    "咨": 695,
    "咫": 696,
    "咬": 697,
    "咮": 698,
    "咱": 699,
    "咳": 700,
    "咸": 701,
    "咻": 702,
    "咽": 703,
    "咿": 704,
    "哀": 705,
    "品": 706,
    "哄": 707,
    "哇": 708,
    "哉": 709,
    "响": 710,
    "哑": 711,
    "哗": 712,
    "哝": 713,
    "員": 714,
    "哢": 715,
    "哥": 716,
    "哦": 717,
    "哨": 718,
    "哭": 719,
    "哮": 720,
    "哲": 721,
    "哳": 722,
    "哺": 723,
    "哿": 724,
    "唅": 725,
    "唇": 726,
    "唐": 727,
    "唤": 728,
    "唦": 729,
    "唧": 730,
    "唯": 731,
    "唱": 732,
    "唳": 733,
    "唼": 734,
    "唾": 735,
    "啁": 736,
    "啄": 737,
    "啅": 738,
    "商": 739,
    "問": 740,
    "啐": 741,
    "啑": 742,
    "啓": 743,
    "啖": 744,
    "啜": 745,
    "啞": 746,
    "啟": 747,
    "啭": 748,
    "啮": 749,
    "啸": 750,
    "啻": 751,
    "啼": 752,
    "啾": 753,
    "善": 754,
    "喉": 755,
    "喑": 756,
    "喔": 757,
    "喘": 758,
    "喙": 759,
    "喚": 760,
    "喜": 761,
    "喝": 762,
    "喟": 763,
    "喧": 764,
    "喪": 765,
    "喫": 766,
    "喬": 767,
    "單": 768,
    "喷": 769,
    "喻": 770,
    "嗁": 771,
    "嗅": 772,
    "嗈": 773,
    "嗔": 774,
    "嗚": 775,
    "嗜": 776,
    "嗟": 777,
    "嗢": 778,
    "嗣": 779,
    "嗤": 780,
    "嗥": 781,
    "嗷": 782,
    "嗽": 783,
    "嗾": 784,
    "嘈": 785,
    "嘉": 786,
    "嘏": 787,
    "嘐": 788,
    "嘑": 789,
    "嘖": 790,
    "嘗": 791,
    "嘛": 792,
    "嘬": 793,
    "嘯": 794,
    "嘱": 795,
    "嘲": 796,
    "嘴": 797,
    "嘶": 798,
    "嘹": 799,
    "嘽": 800,
    "噀": 801,
    "噉": 802,
    "噎": 803,
    "噤": 804,
    "器": 805,
    "噪": 806,
    "噫": 807,
    "噬": 808,
    "噲": 809,
    "噴": 810,
    "噷": 811,
    "嚇": 812,
    "嚣": 813,
    "嚬": 814,
    "嚮": 815,
    "嚱": 816,
    "嚴": 817,
    "嚶": 818,
    "嚻": 819,
    "嚼": 820,
    "囀": 821,
    "囂": 822,
    "囉": 823,
    "囊": 824,
    "囑": 825,
    "囚": 826,
    "四": 827,
    "囝": 828,
    "回": 829,
    "因": 830,
    "团": 831,
    "园": 832,
    "困": 833,
    "围": 834,
    "囷": 835,
    "固": 836,
    "国": 837,
    "图": 838,
    "囿": 839,
    "圃": 840,
    "圆": 841,
    "圈": 842,
    "圉": 843,
    "國": 844,
    "圍": 845,
    "園": 846,
    "圓": 847,
    "圖": 848,
    "團": 849,
    "圜": 850,
    "土": 851,
    "圣": 852,
    "在": 853,
    "圭": 854,
    "地": 855,
    "场": 856,
    "圻": 857,
    "坂": 858,
    "均": 859,
    "坊": 860,
    "坎": 861,
    "坏": 862,
    "坐": 863,
    "坑": 864,
    "块": 865,
    "坚": 866,
    "坛": 867,
    "坞": 868,
    "坟": 869,
    "坠": 870,
    "坡": 871,
    "坤": 872,
    "坦": 873,
    "坰": 874,
    "坻": 875,
    "坼": 876,
    "垂": 877,
    "垅": 878,
    "垆": 879,
    "垒": 880,
    "垓": 881,
    "垠": 882,
    "垢": 883,
    "垣": 884,
    "垤": 885,
    "垩": 886,
    "垫": 887,
    "埃": 888,
    "埋": 889,
    "城": 890,
    "埏": 891,
    "埒": 892,
    "埙": 893,
    "域": 894,
    "埭": 895,
    "執": 896,
    "培": 897,
    "基": 898,
    "埽": 899,
    "堂": 900,
    "堅": 901,
    "堆": 902,
    "堑": 903,
    "堕": 904,
    "堙": 905,
    "堞": 906,
    "堠": 907,
    "堤": 908,
    "堪": 909,
    "堯": 910,
    "堰": 911,
    "報": 912,
    "場": 913,
    "堵": 914,
    "塊": 915,
    "塋": 916,
    "塍": 917,
    "塔": 918,
    "塗": 919,
    "塘": 920,
    "塞": 921,
    "塢": 922,
    "填": 923,
    "塵": 924,
    "墀": 925,
    "墁": 926,
    "境": 927,
    "墄": 928,
    "墅": 929,
    "墉": 930,
    "墊": 931,
    "墓": 932,
    "墖": 933,
    "墙": 934,
    "墜": 935,
    "增": 936,
    "墟": 937,
    "墦": 938,
    "墨": 939,
    "墮": 940,
    "墳": 941,
    "墾": 942,
    "壁": 943,
    "壅": 944,
    "壇": 945,
    "壍": 946,
    "壑": 947,
    "壓": 948,
    "壕": 949,
    "壘": 950,
    "壙": 951,
    "壝": 952,
    "壞": 953,
    "壟": 954,
    "壠": 955,
    "壤": 956,
    "士": 957,
    "壬": 958,
    "壮": 959,
    "壯": 960,
    "声": 961,
    "壶": 962,
    "壹": 963,
    "壺": 964,
    "壻": 965,
    "壽": 966,
    "处": 967,
    "备": 968,
    "复": 969,
    "夏": 970,
    "夔": 971,
    "夕": 972,
    "外": 973,
    "夙": 974,
    "多": 975,
    "夜": 976,
    "夢": 977,
    "夤": 978,
    "大": 979,
    "天": 980,
    "太": 981,
    "夫": 982,
    "夭": 983,
    "央": 984,
    "夯": 985,
    "失": 986,
    "头": 987,
    "夷": 988,
    "夸": 989,
    "夹": 990,
    "夺": 991,
    "夾": 992,
    "奁": 993,
    "奄": 994,
    "奇": 995,
    "奈": 996,
    "奉": 997,
    "奎": 998,
    "奏": 999,
    "契": 1000,
    "奔": 1001,
    "奕": 1002,
    "奚": 1003,
    "奠": 1004,
    "奢": 1005,
    "奧": 1006,
    "奪": 1007,
    "奮": 1008,
    "女": 1009,
    "奴": 1010,
    "奸": 1011,
    "好": 1012,
    "妁": 1013,
    "如": 1014,
    "妃": 1015,
    "妄": 1016,
    "妆": 1017,
    "妇": 1018,
    "妍": 1019,
    "妒": 1020,
    "妓": 1021,
    "妖": 1022,
    "妙": 1023,
    "妝": 1024,
    "妣": 1025,
    "妥": 1026,
    "妨": 1027,
    "妩": 1028,
    "妬": 1029,
    "妮": 1030,
    "妳": 1031,
    "妸": 1032,
    "妹": 1033,
    "妻": 1034,
    "妾": 1035,
    "姊": 1036,
    "始": 1037,
    "姑": 1038,
    "姒": 1039,
    "姓": 1040,
    "委": 1041,
    "姗": 1042,
    "姚": 1043,
    "姜": 1044,
    "姝": 1045,
    "姣": 1046,
    "姤": 1047,
    "姦": 1048,
    "姬": 1049,
    "姮": 1050,
    "姹": 1051,
    "姻": 1052,
    "姿": 1053,
    "威": 1054,
    "娃": 1055,
    "娄": 1056,
    "娅": 1057,
    "娆": 1058,
    "娇": 1059,
    "娈": 1060,
    "娉": 1061,
    "娑": 1062,
    "娘": 1063,
    "娛": 1064,
    "娜": 1065,
    "娟": 1066,
    "娥": 1067,
    "娩": 1068,
    "娱": 1069,
    "娶": 1070,
    "婀": 1071,
    "婁": 1072,
    "婆": 1073,
    "婉": 1074,
    "婚": 1075,
    "婢": 1076,
    "婦": 1077,
    "婪": 1078,
    "婴": 1079,
    "婵": 1080,
    "婷": 1081,
    "婺": 1082,
    "婿": 1083,
    "媒": 1084,
    "媚": 1085,
    "媢": 1086,
    "媧": 1087,
    "媪": 1088,
    "媯": 1089,
    "媲": 1090,
    "媻": 1091,
    "媿": 1092,
    "嫁": 1093,
    "嫂": 1094,
    "嫉": 1095,
    "嫋": 1096,
    "嫌": 1097,
    "嫔": 1098,
    "嫖": 1099,
    "嫣": 1100,
    "嫦": 1101,
    "嫩": 1102,
    "嫪": 1103,
    "嫱": 1104,
    "嬉": 1105,
    "嬋": 1106,
    "嬌": 1107,
    "嬖": 1108,
    "嬰": 1109,
    "嬴": 1110,
    "嬾": 1111,
    "孀": 1112,
    "孌": 1113,
    "子": 1114,
    "孑": 1115,
    "孔": 1116,
    "孕": 1117,
    "字": 1118,
    "存": 1119,
    "孙": 1120,
    "孚": 1121,
    "孛": 1122,
    "孜": 1123,
    "孝": 1124,
    "孟": 1125,
    "季": 1126,
    "孤": 1127,
    "孥": 1128,
    "学": 1129,
    "孩": 1130,
    "孫": 1131,
    "孰": 1132,
    "孱": 1133,
    "孳": 1134,
    "學": 1135,
    "孺": 1136,
    "孽": 1137,
    "宁": 1138,
    "它": 1139,
    "宅": 1140,
    "宇": 1141,
    "守": 1142,
    "安": 1143,
    "宋": 1144,
    "完": 1145,
    "宏": 1146,
    "宕": 1147,
    "宗": 1148,
    "官": 1149,
    "宙": 1150,
    "定": 1151,
    "宛": 1152,
    "宜": 1153,
    "宝": 1154,
    "实": 1155,
    "宠": 1156,
    "客": 1157,
    "宣": 1158,
    "室": 1159,
    "宥": 1160,
    "宦": 1161,
    "宪": 1162,
    "宫": 1163,
    "宮": 1164,
    "宰": 1165,
    "害": 1166,
    "宴": 1167,
    "宵": 1168,
    "家": 1169,
    "宸": 1170,
    "容": 1171,
    "宽": 1172,
    "宾": 1173,
    "宿": 1174,
    "寂": 1175,
    "寄": 1176,
    "寅": 1177,
    "密": 1178,
    "寇": 1179,
    "富": 1180,
    "寐": 1181,
    "寒": 1182,
    "寓": 1183,
    "寘": 1184,
    "寝": 1185,
    "寞": 1186,
    "察": 1187,
    "寡": 1188,
    "寢": 1189,
    "寤": 1190,
    "寥": 1191,
    "實": 1192,
    "寧": 1193,
    "寨": 1194,
    "審": 1195,
    "寫": 1196,
    "寬": 1197,
    "寰": 1198,
    "寵": 1199,
    "寶": 1200,
    "寸": 1201,
    "对": 1202,
    "寺": 1203,
    "寻": 1204,
    "寿": 1205,
    "封": 1206,
    "射": 1207,
    "将": 1208,
    "將": 1209,
    "專": 1210,
    "尉": 1211,
    "尊": 1212,
    "尋": 1213,
    "對": 1214,
    "導": 1215,
    "小": 1216,
    "少": 1217,
    "尔": 1218,
    "尖": 1219,
    "尘": 1220,
    "尚": 1221,
    "尝": 1222,
    "尤": 1223,
    "尧": 1224,
    "尩": 1225,
    "就": 1226,
    "尸": 1227,
    "尹": 1228,
    "尺": 1229,
    "尼": 1230,
    "尽": 1231,
    "尾": 1232,
    "尿": 1233,
    "局": 1234,
    "层": 1235,
    "居": 1236,
    "屆": 1237,
    "屈": 1238,
    "屉": 1239,
    "届": 1240,
    "屋": 1241,
    "屍": 1242,
    "屏": 1243,
    "屐": 1244,
    "屑": 1245,
    "展": 1246,
    "属": 1247,
    "屠": 1248,
    "屡": 1249,
    "屢": 1250,
    "屣": 1251,
    "層": 1252,
    "履": 1253,
    "屦": 1254,
    "屧": 1255,
    "屨": 1256,
    "屬": 1257,
    "屯": 1258,
    "山": 1259,
    "屹": 1260,
    "屼": 1261,
    "屿": 1262,
    "岁": 1263,
    "岂": 1264,
    "岌": 1265,
    "岐": 1266,
    "岑": 1267,
    "岖": 1268,
    "岚": 1269,
    "岛": 1270,
    "岡": 1271,
    "岧": 1272,
    "岨": 1273,
    "岩": 1274,
    "岫": 1275,
    "岭": 1276,
    "岱": 1277,
    "岳": 1278,
    "岷": 1279,
    "岸": 1280,
    "岹": 1281,
    "岿": 1282,
    "峒": 1283,
    "峡": 1284,
    "峤": 1285,
    "峥": 1286,
    "峦": 1287,
    "峨": 1288,
    "峭": 1289,
    "峯": 1290,
    "峰": 1291,
    "島": 1292,
    "峻": 1293,
    "峽": 1294,
    "崄": 1295,
    "崆": 1296,
    "崇": 1297,
    "崎": 1298,
    "崐": 1299,
    "崑": 1300,
    "崔": 1301,
    "崖": 1302,
    "崗": 1303,
    "崘": 1304,
    "崙": 1305,
    "崢": 1306,
    "崤": 1307,
    "崦": 1308,
    "崧": 1309,
    "崩": 1310,
    "崪": 1311,
    "崷": 1312,
    "崿": 1313,
    "嵋": 1314,
    "嵎": 1315,
    "嵐": 1316,
    "嵒": 1317,
    "嵘": 1318,
    "嵩": 1319,
    "嵫": 1320,
    "嵬": 1321,
    "嵯": 1322,
    "嶂": 1323,
    "嶇": 1324,
    "嶓": 1325,
    "嶔": 1326,
    "嶙": 1327,
    "嶠": 1328,
    "嶢": 1329,
    "嶤": 1330,
    "嶪": 1331,
    "嶮": 1332,
    "嶰": 1333,
    "嶷": 1334,
    "嶸": 1335,
    "嶺": 1336,
    "嶼": 1337,
    "嶽": 1338,
    "嶾": 1339,
    "巅": 1340,
    "巇": 1341,
    "巉": 1342,
    "巍": 1343,
    "巒": 1344,
    "巔": 1345,
    "巖": 1346,
    "巘": 1347,
    "川": 1348,
    "州": 1349,
    "巡": 1350,
    "巢": 1351,
    "工": 1352,
    "左": 1353,
    "巧": 1354,
    "巨": 1355,
    "巩": 1356,
    "巫": 1357,
    "差": 1358,
    "己": 1359,
    "已": 1360,
    "巳": 1361,
    "巴": 1362,
    "巵": 1363,
    "巷": 1364,
    "巽": 1365,
    "巾": 1366,
    "帀": 1367,
    "币": 1368,
    "市": 1369,
    "布": 1370,
    "帅": 1371,
    "帆": 1372,
    "师": 1373,
    "希": 1374,
    "帏": 1375,
    "帐": 1376,
    "帑": 1377,
    "帔": 1378,
    "帕": 1379,
    "帖": 1380,
    "帘": 1381,
    "帙": 1382,
    "帚": 1383,
    "帛": 1384,
    "帜": 1385,
    "帝": 1386,
    "帟": 1387,
    "帥": 1388,
    "带": 1389,
    "帧": 1390,
    "師": 1391,
    "帬": 1392,
    "席": 1393,
    "帳": 1394,
    "帶": 1395,
    "帷": 1396,
    "常": 1397,
    "帻": 1398,
    "帽": 1399,
    "幂": 1400,
    "幃": 1401,
    "幄": 1402,
    "幅": 1403,
    "幌": 1404,
    "幔": 1405,
    "幕": 1406,
    "幟": 1407,
    "幡": 1408,
    "幢": 1409,
    "幣": 1410,
    "幬": 1411,
    "幰": 1412,
    "干": 1413,
    "平": 1414,
    "年": 1415,
    "并": 1416,
    "幷": 1417,
    "幸": 1418,
    "幹": 1419,
    "幺": 1420,
    "幻": 1421,
    "幼": 1422,
    "幽": 1423,
    "幾": 1424,
    "广": 1425,
    "庄": 1426,
    "庆": 1427,
    "庇": 1428,
    "床": 1429,
    "序": 1430,
    "庐": 1431,
    "应": 1432,
    "底": 1433,
    "庖": 1434,
    "店": 1435,
    "庙": 1436,
    "庚": 1437,
    "府": 1438,
    "庞": 1439,
    "废": 1440,
    "庠": 1441,
    "度": 1442,
    "座": 1443,
    "庫": 1444,
    "庭": 1445,
    "庳": 1446,
    "庵": 1447,
    "庶": 1448,
    "康": 1449,
    "庸": 1450,
    "庾": 1451,
    "廀": 1452,
    "廄": 1453,
    "廉": 1454,
    "廊": 1455,
    "廋": 1456,
    "廐": 1457,
    "廓": 1458,
    "廚": 1459,
    "廛": 1460,
    "廟": 1461,
    "廡": 1462,
    "廢": 1463,
    "廣": 1464,
    "廩": 1465,
    "廬": 1466,
    "延": 1467,
    "廷": 1468,
    "建": 1469,
    "开": 1470,
    "弁": 1471,
    "异": 1472,
    "弃": 1473,
    "弄": 1474,
    "弈": 1475,
    "弊": 1476,
    "式": 1477,
    "弒": 1478,
    "弓": 1479,
    "弔": 1480,
    "引": 1481,
    "弗": 1482,
    "弘": 1483,
    "弟": 1484,
    "张": 1485,
    "弢": 1486,
    "弤": 1487,
    "弥": 1488,
    "弦": 1489,
    "弧": 1490,
    "弩": 1491,
    "弭": 1492,
    "弯": 1493,
    "弰": 1494,
    "弱": 1495,
    "張": 1496,
    "強": 1497,
    "弹": 1498,
    "强": 1499,
    "弼": 1500,
    "彀": 1501,
    "彈": 1502,
    "彊": 1503,
    "彌": 1504,
    "彎": 1505,
    "归": 1506,
    "当": 1507,
    "录": 1508,
    "彗": 1509,
    "彘": 1510,
    "彙": 1511,
    "彝": 1512,
    "形": 1513,
    "彤": 1514,
    "彥": 1515,
    "彦": 1516,
    "彩": 1517,
    "彪": 1518,
    "彫": 1519,
    "彬": 1520,
    "彭": 1521,
    "彯": 1522,
    "彰": 1523,
    "影": 1524,
    "彷": 1525,
    "役": 1526,
    "彻": 1527,
    "彼": 1528,
    "彿": 1529,
    "往": 1530,
    "征": 1531,
    "徂": 1532,
    "径": 1533,
    "待": 1534,
    "徇": 1535,
    "很": 1536,
    "徉": 1537,
    "徊": 1538,
    "律": 1539,
    "後": 1540,
    "徐": 1541,
    "徑": 1542,
    "徒": 1543,
    "得": 1544,
    "徘": 1545,
    "徙": 1546,
    "徜": 1547,
    "從": 1548,
    "御": 1549,
    "徧": 1550,
    "復": 1551,
    "循": 1552,
    "徭": 1553,
    "微": 1554,
    "徯": 1555,
    "徵": 1556,
    "德": 1557,
    "徹": 1558,
    "徼": 1559,
    "徽": 1560,
    "心": 1561,
    "必": 1562,
    "忆": 1563,
    "忉": 1564,
    "忌": 1565,
    "忍": 1566,
    "忒": 1567,
    "忔": 1568,
    "忖": 1569,
    "志": 1570,
    "忘": 1571,
    "忙": 1572,
    "忝": 1573,
    "忠": 1574,
    "忡": 1575,
    "忧": 1576,
    "忪": 1577,
    "快": 1578,
    "念": 1579,
    "忸": 1580,
    "忺": 1581,
    "忻": 1582,
    "忼": 1583,
    "忽": 1584,
    "忿": 1585,
    "怀": 1586,
    "态": 1587,
    "怅": 1588,
    "怆": 1589,
    "怊": 1590,
    "怍": 1591,
    "怎": 1592,
    "怒": 1593,
    "怕": 1594,
    "怖": 1595,
    "怜": 1596,
    "思": 1597,
    "怠": 1598,
    "怡": 1599,
    "急": 1600,
    "性": 1601,
    "怨": 1602,
    "怩": 1603,
    "怪": 1604,
    "怯": 1605,
    "怵": 1606,
    "总": 1607,
    "怼": 1608,
    "恁": 1609,
    "恂": 1610,
    "恃": 1611,
    "恆": 1612,
    "恋": 1613,
    "恍": 1614,
    "恐": 1615,
    "恒": 1616,
    "恓": 1617,
    "恔": 1618,
    "恕": 1619,
    "恙": 1620,
    "恝": 1621,
    "恢": 1622,
    "恣": 1623,
    "恤": 1624,
    "恥": 1625,
    "恨": 1626,
    "恩": 1627,
    "恬": 1628,
    "恭": 1629,
    "息": 1630,
    "恰": 1631,
    "恶": 1632,
    "恹": 1633,
    "恺": 1634,
    "恻": 1635,
    "恼": 1636,
    "恽": 1637,
    "悄": 1638,
    "悅": 1639,
    "悉": 1640,
    "悌": 1641,
    "悍": 1642,
    "悒": 1643,
    "悔": 1644,
    "悖": 1645,
    "悚": 1646,
    "悞": 1647,
    "悟": 1648,
    "悠": 1649,
    "患": 1650,
    "悦": 1651,
    "悬": 1652,
    "悭": 1653,
    "悰": 1654,
    "悲": 1655,
    "悴": 1656,
    "悵": 1657,
    "悻": 1658,
    "悼": 1659,
    "悽": 1660,
    "情": 1661,
    "惆": 1662,
    "惊": 1663,
    "惋": 1664,
    "惑": 1665,
    "惕": 1666,
    "惘": 1667,
    "惚": 1668,
    "惛": 1669,
    "惜": 1670,
    "惟": 1671,
    "惠": 1672,
    "惡": 1673,
    "惨": 1674,
    "惬": 1675,
    "惭": 1676,
    "惯": 1677,
    "惰": 1678,
    "惱": 1679,
    "惲": 1680,
    "想": 1681,
    "惴": 1682,
    "惶": 1683,
    "惸": 1684,
    "惹": 1685,
    "惺": 1686,
    "惻": 1687,
    "愀": 1688,
    "愁": 1689,
    "愆": 1690,
    "愈": 1691,
    "愉": 1692,
    "意": 1693,
    "愔": 1694,
    "愚": 1695,
    "愛": 1696,
    "愜": 1697,
    "感": 1698,
    "愠": 1699,
    "愤": 1700,
    "愧": 1701,
    "愬": 1702,
    "愴": 1703,
    "愷": 1704,
    "愾": 1705,
    "愿": 1706,
    "慄": 1707,
    "慇": 1708,
    "慈": 1709,
    "慊": 1710,
    "態": 1711,
    "慌": 1712,
    "慍": 1713,
    "慎": 1714,
    "慕": 1715,
    "慘": 1716,
    "慙": 1717,
    "慚": 1718,
    "慝": 1719,
    "慟": 1720,
    "慢": 1721,
    "慣": 1722,
    "慥": 1723,
    "慧": 1724,
    "慨": 1725,
    "慮": 1726,
    "慰": 1727,
    "慵": 1728,
    "慶": 1729,
    "慷": 1730,
    "慾": 1731,
    "憀": 1732,
    "憁": 1733,
    "憂": 1734,
    "憊": 1735,
    "憎": 1736,
    "憐": 1737,
    "憑": 1738,
    "憔": 1739,
    "憚": 1740,
    "憤": 1741,
    "憧": 1742,
    "憨": 1743,
    "憩": 1744,
    "憫": 1745,
    "憮": 1746,
    "憲": 1747,
    "憶": 1748,
    "憾": 1749,
    "懃": 1750,
    "懇": 1751,
    "應": 1752,
    "懊": 1753,
    "懒": 1754,
    "懟": 1755,
    "懥": 1756,
    "懦": 1757,
    "懲": 1758,
    "懵": 1759,
    "懷": 1760,
    "懸": 1761,
    "懼": 1762,
    "懽": 1763,
    "懾": 1764,
    "懿": 1765,
    "戀": 1766,
    "戈": 1767,
    "戊": 1768,
    "戌": 1769,
    "戍": 1770,
    "戎": 1771,
    "戏": 1772,
    "成": 1773,
    "我": 1774,
    "戒": 1775,
    "戕": 1776,
    "或": 1777,
    "战": 1778,
    "戚": 1779,
    "戛": 1780,
    "戟": 1781,
    "戢": 1782,
    "截": 1783,
    "戮": 1784,
    "戰": 1785,
    "戲": 1786,
    "戴": 1787,
    "戶": 1788,
    "户": 1789,
    "戹": 1790,
    "戺": 1791,
    "戾": 1792,
    "房": 1793,
    "所": 1794,
    "扁": 1795,
    "扃": 1796,
    "扄": 1797,
    "扆": 1798,
    "扇": 1799,
    "扈": 1800,
    "扉": 1801,
    "手": 1802,
    "才": 1803,
    "扑": 1804,
    "打": 1805,
    "托": 1806,
    "扣": 1807,
    "执": 1808,
    "扪": 1809,
    "扫": 1810,
    "扬": 1811,
    "扮": 1812,
    "扯": 1813,
    "扰": 1814,
    "扳": 1815,
    "扶": 1816,
    "批": 1817,
    "承": 1818,
    "技": 1819,
    "抃": 1820,
    "抆": 1821,
    "把": 1822,
    "抑": 1823,
    "投": 1824,
    "抖": 1825,
    "抗": 1826,
    "折": 1827,
    "抚": 1828,
    "抛": 1829,
    "护": 1830,
    "报": 1831,
    "披": 1832,
    "抬": 1833,
    "抱": 1834,
    "抵": 1835,
    "抹": 1836,
    "押": 1837,
    "抽": 1838,
    "拂": 1839,
    "拄": 1840,
    "担": 1841,
    "拆": 1842,
    "拈": 1843,
    "拊": 1844,
    "拋": 1845,
    "拍": 1846,
    "拏": 1847,
    "拒": 1848,
    "拓": 1849,
    "拔": 1850,
    "拖": 1851,
    "拗": 1852,
    "拘": 1853,
    "拙": 1854,
    "拚": 1855,
    "招": 1856,
    "拜": 1857,
    "拟": 1858,
    "拢": 1859,
    "拣": 1860,
    "拥": 1861,
    "拦": 1862,
    "拨": 1863,
    "括": 1864,
    "拭": 1865,
    "拯": 1866,
    "拱": 1867,
    "拳": 1868,
    "拼": 1869,
    "拽": 1870,
    "拾": 1871,
    "拿": 1872,
    "持": 1873,
    "挂": 1874,
    "指": 1875,
    "按": 1876,
    "挑": 1877,
    "挚": 1878,
    "挝": 1879,
    "挟": 1880,
    "挥": 1881,
    "挨": 1882,
    "挪": 1883,
    "挫": 1884,
    "振": 1885,
    "挲": 1886,
    "挹": 1887,
    "挺": 1888,
    "挼": 1889,
    "挽": 1890,
    "挾": 1891,
    "捆": 1892,
    "捉": 1893,
    "捋": 1894,
    "捍": 1895,
    "捎": 1896,
    "捏": 1897,
    "捐": 1898,
    "捕": 1899,
    "损": 1900,
    "捡": 1901,
    "换": 1902,
    "捣": 1903,
    "捧": 1904,
    "捨": 1905,
    "捩": 1906,
    "捫": 1907,
    "据": 1908,
    "捱": 1909,
    "捷": 1910,
    "捻": 1911,
    "掀": 1912,
    "掃": 1913,
    "掇": 1914,
    "授": 1915,
    "掉": 1916,
    "掊": 1917,
    "掌": 1918,
    "掎": 1919,
    "掏": 1920,
    "掐": 1921,
    "排": 1922,
    "掖": 1923,
    "掘": 1924,
    "掠": 1925,
    "採": 1926,
    "探": 1927,
    "掣": 1928,
    "接": 1929,
    "控": 1930,
    "推": 1931,
    "掩": 1932,
    "措": 1933,
    "掬": 1934,
    "掰": 1935,
    "掷": 1936,
    "掺": 1937,
    "揀": 1938,
    "揄": 1939,
    "揆": 1940,
    "揉": 1941,
    "揎": 1942,
    "描": 1943,
    "提": 1944,
    "插": 1945,
    "揖": 1946,
    "揚": 1947,
    "換": 1948,
    "揜": 1949,
    "揠": 1950,
    "握": 1951,
    "揣": 1952,
    "揩": 1953,
    "揭": 1954,
    "揮": 1955,
    "揲": 1956,
    "援": 1957,
    "揶": 1958,
    "揽": 1959,
    "搀": 1960,
    "搅": 1961,
    "搆": 1962,
    "搊": 1963,
    "損": 1964,
    "搏": 1965,
    "搐": 1966,
    "搓": 1967,
    "搔": 1968,
    "搖": 1969,
    "搜": 1970,
    "搢": 1971,
    "搥": 1972,
    "搦": 1973,
    "搭": 1974,
    "搴": 1975,
    "搵": 1976,
    "携": 1977,
    "摄": 1978,
    "摆": 1979,
    "摇": 1980,
    "摊": 1981,
    "摐": 1982,
    "摘": 1983,
    "摛": 1984,
    "摟": 1985,
    "摧": 1986,
    "摩": 1987,
    "摶": 1988,
    "摸": 1989,
    "摺": 1990,
    "摽": 1991,
    "撇": 1992,
    "撋": 1993,
    "撐": 1994,
    "撑": 1995,
    "撒": 1996,
    "撓": 1997,
    "撝": 1998,
    "撞": 1999,
    "撤": 2000,
    "撥": 2001,
    "撩": 2002,
    "撫": 2003,
    "播": 2004,
    "撮": 2005,
    "撰": 2006,
    "撲": 2007,
    "撷": 2008,
    "撻": 2009,
    "撼": 2010,
    "撾": 2011,
    "擁": 2012,
    "擂": 2013,
    "擅": 2014,
    "擇": 2015,
    "擊": 2016,
    "操": 2017,
    "擎": 2018,
    "擐": 2019,
    "擒": 2020,
    "擔": 2021,
    "擘": 2022,
    "據": 2023,
    "擞": 2024,
    "擡": 2025,
    "擢": 2026,
    "擣": 2027,
    "擬": 2028,
    "擭": 2029,
    "擲": 2030,
    "擴": 2031,
    "擺": 2032,
    "擾": 2033,
    "攀": 2034,
    "攄": 2035,
    "攏": 2036,
    "攒": 2037,
    "攔": 2038,
    "攖": 2039,
    "攘": 2040,
    "攜": 2041,
    "攝": 2042,
    "攢": 2043,
    "攪": 2044,
    "攫": 2045,
    "攬": 2046,
    "支": 2047,
    "收": 2048,
    "攸": 2049,
    "改": 2050,
    "攻": 2051,
    "放": 2052,
    "政": 2053,
    "故": 2054,
    "效": 2055,
    "敌": 2056,
    "敍": 2057,
    "敏": 2058,
    "救": 2059,
    "敔": 2060,
    "敕": 2061,
    "敖": 2062,
    "敗": 2063,
    "教": 2064,
    "敛": 2065,
    "敝": 2066,
    "敞": 2067,
    "敢": 2068,
    "散": 2069,
    "敦": 2070,
    "敧": 2071,
    "敬": 2072,
    "敭": 2073,
    "数": 2074,
    "敲": 2075,
    "整": 2076,
    "敵": 2077,
    "敷": 2078,
    "數": 2079,
    "敺": 2080,
    "敻": 2081,
    "斁": 2082,
    "斂": 2083,
    "斃": 2084,
    "斅": 2085,
    "文": 2086,
    "斋": 2087,
    "斐": 2088,
    "斑": 2089,
    "斒": 2090,
    "斕": 2091,
    "斗": 2092,
    "料": 2093,
    "斛": 2094,
    "斜": 2095,
    "斝": 2096,
    "斟": 2097,
    "斡": 2098,
    "斤": 2099,
    "斥": 2100,
    "斧": 2101,
    "斩": 2102,
    "斫": 2103,
    "斬": 2104,
    "断": 2105,
    "斮": 2106,
    "斯": 2107,
    "新": 2108,
    "斵": 2109,
    "斷": 2110,
    "斸": 2111,
    "方": 2112,
    "於": 2113,
    "施": 2114,
    "斾": 2115,
    "旁": 2116,
    "旂": 2117,
    "旃": 2118,
    "旄": 2119,
    "旅": 2120,
    "旆": 2121,
    "旋": 2122,
    "旌": 2123,
    "旎": 2124,
    "族": 2125,
    "旐": 2126,
    "旒": 2127,
    "旖": 2128,
    "旗": 2129,
    "旞": 2130,
    "旟": 2131,
    "无": 2132,
    "既": 2133,
    "日": 2134,
    "旦": 2135,
    "旧": 2136,
    "旨": 2137,
    "早": 2138,
    "旬": 2139,
    "旭": 2140,
    "旰": 2141,
    "旱": 2142,
    "时": 2143,
    "旷": 2144,
    "旻": 2145,
    "昂": 2146,
    "昃": 2147,
    "昆": 2148,
    "昇": 2149,
    "昊": 2150,
    "昌": 2151,
    "明": 2152,
    "昏": 2153,
    "易": 2154,
    "昔": 2155,
    "昕": 2156,
    "星": 2157,
    "映": 2158,
    "春": 2159,
    "昧": 2160,
    "昨": 2161,
    "昬": 2162,
    "昭": 2163,
    "是": 2164,
    "昴": 2165,
    "昵": 2166,
    "昼": 2167,
    "昽": 2168,
    "显": 2169,
    "時": 2170,
    "晃": 2171,
    "晉": 2172,
    "晋": 2173,
    "晏": 2174,
    "晒": 2175,
    "晓": 2176,
    "晕": 2177,
    "晖": 2178,
    "晚": 2179,
    "晝": 2180,
    "晞": 2181,
    "晡": 2182,
    "晦": 2183,
    "晨": 2184,
    "晬": 2185,
    "普": 2186,
    "景": 2187,
    "晰": 2188,
    "晴": 2189,
    "晶": 2190,
    "晷": 2191,
    "智": 2192,
    "晼": 2193,
    "暂": 2194,
    "暄": 2195,
    "暇": 2196,
    "暈": 2197,
    "暉": 2198,
    "暎": 2199,
    "暑": 2200,
    "暖": 2201,
    "暗": 2202,
    "暘": 2203,
    "暝": 2204,
    "暢": 2205,
    "暧": 2206,
    "暫": 2207,
    "暮": 2208,
    "暴": 2209,
    "曄": 2210,
    "曆": 2211,
    "曈": 2212,
    "曉": 2213,
    "曖": 2214,
    "曙": 2215,
    "曛": 2216,
    "曜": 2217,
    "曝": 2218,
    "曠": 2219,
    "曦": 2220,
    "曨": 2221,
    "曩": 2222,
    "曰": 2223,
    "曲": 2224,
    "曳": 2225,
    "更": 2226,
    "曷": 2227,
    "書": 2228,
    "曹": 2229,
    "曼": 2230,
    "曾": 2231,
    "替": 2232,
    "最": 2233,
    "會": 2234,
    "朅": 2235,
    "月": 2236,
    "有": 2237,
    "朋": 2238,
    "服": 2239,
    "朏": 2240,
    "朔": 2241,
    "朕": 2242,
    "朗": 2243,
    "望": 2244,
    "朝": 2245,
    "朞": 2246,
    "期": 2247,
    "朦": 2248,
    "朧": 2249,
    "木": 2250,
    "未": 2251,
    "末": 2252,
    "本": 2253,
    "札": 2254,
    "术": 2255,
    "朱": 2256,
    "朴": 2257,
    "朵": 2258,
    "机": 2259,
    "朽": 2260,
    "杀": 2261,
    "杂": 2262,
    "权": 2263,
    "杆": 2264,
    "杉": 2265,
    "杌": 2266,
    "李": 2267,
    "杏": 2268,
    "材": 2269,
    "村": 2270,
    "杓": 2271,
    "杖": 2272,
    "杙": 2273,
    "杜": 2274,
    "杞": 2275,
    "束": 2276,
    "杠": 2277,
    "条": 2278,
    "来": 2279,
    "杨": 2280,
    "杪": 2281,
    "杭": 2282,
    "杯": 2283,
    "杰": 2284,
    "東": 2285,
    "杳": 2286,
    "杵": 2287,
    "杼": 2288,
    "松": 2289,
    "板": 2290,
    "极": 2291,
    "构": 2292,
    "枉": 2293,
    "析": 2294,
    "枕": 2295,
    "林": 2296,
    "枚": 2297,
    "果": 2298,
    "枝": 2299,
    "枢": 2300,
    "枣": 2301,
    "枪": 2302,
    "枫": 2303,
    "枯": 2304,
    "枰": 2305,
    "架": 2306,
    "枿": 2307,
    "柁": 2308,
    "柄": 2309,
    "柈": 2310,
    "柏": 2311,
    "柑": 2312,
    "染": 2313,
    "柔": 2314,
    "柘": 2315,
    "柚": 2316,
    "柜": 2317,
    "柝": 2318,
    "柞": 2319,
    "柢": 2320,
    "查": 2321,
    "柯": 2322,
    "柱": 2323,
    "柳": 2324,
    "柴": 2325,
    "柵": 2326,
    "柷": 2327,
    "柿": 2328,
    "栀": 2329,
    "标": 2330,
    "栈": 2331,
    "栊": 2332,
    "栋": 2333,
    "栏": 2334,
    "树": 2335,
    "栖": 2336,
    "栗": 2337,
    "校": 2338,
    "栧": 2339,
    "栩": 2340,
    "株": 2341,
    "栲": 2342,
    "栳": 2343,
    "栴": 2344,
    "样": 2345,
    "核": 2346,
    "根": 2347,
    "格": 2348,
    "栽": 2349,
    "栾": 2350,
    "桀": 2351,
    "桁": 2352,
    "桂": 2353,
    "桃": 2354,
    "案": 2355,
    "桎": 2356,
    "桐": 2357,
    "桑": 2358,
    "桓": 2359,
    "桔": 2360,
    "桡": 2361,
    "桥": 2362,
    "桧": 2363,
    "桨": 2364,
    "桮": 2365,
    "桴": 2366,
    "梁": 2367,
    "梃": 2368,
    "梅": 2369,
    "梏": 2370,
    "梓": 2371,
    "梗": 2372,
    "條": 2373,
    "梟": 2374,
    "梡": 2375,
    "梢": 2376,
    "梦": 2377,
    "梧": 2378,
    "梨": 2379,
    "梩": 2380,
    "梭": 2381,
    "梯": 2382,
    "械": 2383,
    "梳": 2384,
    "梵": 2385,
    "检": 2386,
    "棃": 2387,
    "棄": 2388,
    "棋": 2389,
    "棐": 2390,
    "棖": 2391,
    "棗": 2392,
    "棘": 2393,
    "棟": 2394,
    "棠": 2395,
    "棣": 2396,
    "棧": 2397,
    "棬": 2398,
    "森": 2399,
    "棱": 2400,
    "棲": 2401,
    "棹": 2402,
    "棺": 2403,
    "棽": 2404,
    "椀": 2405,
    "植": 2406,
    "椒": 2407,
    "椰": 2408,
    "椶": 2409,
    "椽": 2410,
    "椿": 2411,
    "楊": 2412,
    "楓": 2413,
    "楗": 2414,
    "楚": 2415,
    "楞": 2416,
    "楣": 2417,
    "楨": 2418,
    "楫": 2419,
    "業": 2420,
    "楯": 2421,
    "極": 2422,
    "楸": 2423,
    "楹": 2424,
    "楼": 2425,
    "概": 2426,
    "榆": 2427,
    "榔": 2428,
    "榕": 2429,
    "榛": 2430,
    "榜": 2431,
    "榧": 2432,
    "榭": 2433,
    "榮": 2434,
    "榱": 2435,
    "榴": 2436,
    "榻": 2437,
    "榼": 2438,
    "槁": 2439,
    "槃": 2440,
    "槊": 2441,
    "構": 2442,
    "槌": 2443,
    "槍": 2444,
    "槎": 2445,
    "槐": 2446,
    "槔": 2447,
    "槛": 2448,
    "槟": 2449,
    "槨": 2450,
    "槱": 2451,
    "槳": 2452,
    "槽": 2453,
    "槿": 2454,
    "樂": 2455,
    "樊": 2456,
    "樓": 2457,
    "標": 2458,
    "樝": 2459,
    "樞": 2460,
    "模": 2461,
    "横": 2462,
    "樯": 2463,
    "樱": 2464,
    "樲": 2465,
    "樵": 2466,
    "樸": 2467,
    "樹": 2468,
    "樽": 2469,
    "樾": 2470,
    "橈": 2471,
    "橋": 2472,
    "橐": 2473,
    "橘": 2474,
    "橙": 2475,
    "橛": 2476,
    "機": 2477,
    "橡": 2478,
    "橤": 2479,
    "橫": 2480,
    "橹": 2481,
    "檀": 2482,
    "檄": 2483,
    "檐": 2484,
    "檜": 2485,
    "檝": 2486,
    "檟": 2487,
    "檠": 2488,
    "檢": 2489,
    "檣": 2490,
    "檥": 2491,
    "檮": 2492,
    "檻": 2493,
    "檿": 2494,
    "櫂": 2495,
    "櫓": 2496,
    "櫛": 2497,
    "櫜": 2498,
    "櫪": 2499,
    "櫱": 2500,
    "櫳": 2501,
    "櫺": 2502,
    "櫻": 2503,
    "欃": 2504,
    "欄": 2505,
    "權": 2506,
    "欒": 2507,
    "欠": 2508,
    "次": 2509,
    "欢": 2510,
    "欣": 2511,
    "欤": 2512,
    "欧": 2513,
    "欲": 2514,
    "欵": 2515,
    "欷": 2516,
    "欹": 2517,
    "欺": 2518,
    "欽": 2519,
    "款": 2520,
    "欿": 2521,
    "歃": 2522,
    "歆": 2523,
    "歇": 2524,
    "歈": 2525,
    "歊": 2526,
    "歌": 2527,
    "歎": 2528,
    "歔": 2529,
    "歘": 2530,
    "歜": 2531,
    "歟": 2532,
    "歠": 2533,
    "歡": 2534,
    "止": 2535,
    "正": 2536,
    "此": 2537,
    "步": 2538,
    "武": 2539,
    "歧": 2540,
    "歲": 2541,
    "歷": 2542,
    "歸": 2543,
    "死": 2544,
    "歿": 2545,
    "殀": 2546,
    "殃": 2547,
    "殄": 2548,
    "殆": 2549,
    "殉": 2550,
    "殊": 2551,
    "残": 2552,
    "殍": 2553,
    "殖": 2554,
    "殘": 2555,
    "殛": 2556,
    "殞": 2557,
    "殢": 2558,
    "殪": 2559,
    "殫": 2560,
    "殲": 2561,
    "殳": 2562,
    "段": 2563,
    "殷": 2564,
    "殺": 2565,
    "殼": 2566,
    "殽": 2567,
    "殿": 2568,
    "毀": 2569,
    "毂": 2570,
    "毅": 2571,
    "毋": 2572,
    "母": 2573,
    "每": 2574,
    "毒": 2575,
    "毓": 2576,
    "比": 2577,
    "毕": 2578,
    "毖": 2579,
    "毗": 2580,
    "毛": 2581,
    "毡": 2582,
    "毫": 2583,
    "毬": 2584,
    "毰": 2585,
    "毳": 2586,
    "毵": 2587,
    "毸": 2588,
    "毹": 2589,
    "毿": 2590,
    "氅": 2591,
    "氈": 2592,
    "氊": 2593,
    "氍": 2594,
    "氎": 2595,
    "氏": 2596,
    "氐": 2597,
    "民": 2598,
    "氓": 2599,
    "气": 2600,
    "氛": 2601,
    "氣": 2602,
    "氤": 2603,
    "氲": 2604,
    "氳": 2605,
    "水": 2606,
    "永": 2607,
    "氾": 2608,
    "汀": 2609,
    "汁": 2610,
    "求": 2611,
    "汉": 2612,
    "汎": 2613,
    "汐": 2614,
    "汗": 2615,
    "汙": 2616,
    "汚": 2617,
    "汜": 2618,
    "汝": 2619,
    "汞": 2620,
    "江": 2621,
    "池": 2622,
    "污": 2623,
    "汤": 2624,
    "汩": 2625,
    "汪": 2626,
    "汭": 2627,
    "汰": 2628,
    "汲": 2629,
    "汴": 2630,
    "汹": 2631,
    "決": 2632,
    "汾": 2633,
    "沁": 2634,
    "沃": 2635,
    "沅": 2636,
    "沆": 2637,
    "沈": 2638,
    "沉": 2639,
    "沍": 2640,
    "沐": 2641,
    "沒": 2642,
    "沓": 2643,
    "沔": 2644,
    "沖": 2645,
    "沙": 2646,
    "沛": 2647,
    "沟": 2648,
    "没": 2649,
    "沤": 2650,
    "沥": 2651,
    "沦": 2652,
    "沧": 2653,
    "沩": 2654,
    "沪": 2655,
    "沫": 2656,
    "沮": 2657,
    "沱": 2658,
    "沲": 2659,
    "河": 2660,
    "沴": 2661,
    "沸": 2662,
    "油": 2663,
    "治": 2664,
    "沼": 2665,
    "沽": 2666,
    "沾": 2667,
    "沿": 2668,
    "況": 2669,
    "泄": 2670,
    "泉": 2671,
    "泊": 2672,
    "泓": 2673,
    "法": 2674,
    "泗": 2675,
    "泚": 2676,
    "泛": 2677,
    "泝": 2678,
    "泞": 2679,
    "泠": 2680,
    "泡": 2681,
    "波": 2682,
    "泣": 2683,
    "泥": 2684,
    "注": 2685,
    "泪": 2686,
    "泫": 2687,
    "泬": 2688,
    "泮": 2689,
    "泯": 2690,
    "泰": 2691,
    "泱": 2692,
    "泳": 2693,
    "泸": 2694,
    "泺": 2695,
    "泻": 2696,
    "泼": 2697,
    "泽": 2698,
    "洁": 2699,
    "洄": 2700,
    "洊": 2701,
    "洋": 2702,
    "洎": 2703,
    "洒": 2704,
    "洗": 2705,
    "洚": 2706,
    "洛": 2707,
    "洞": 2708,
    "津": 2709,
    "洧": 2710,
    "洪": 2711,
    "洮": 2712,
    "洲": 2713,
    "洶": 2714,
    "活": 2715,
    "洼": 2716,
    "洽": 2717,
    "派": 2718,
    "洿": 2719,
    "流": 2720,
    "浃": 2721,
    "浅": 2722,
    "浆": 2723,
    "浇": 2724,
    "浊": 2725,
    "测": 2726,
    "济": 2727,
    "浏": 2728,
    "浑": 2729,
    "浒": 2730,
    "浓": 2731,
    "浔": 2732,
    "浙": 2733,
    "浚": 2734,
    "浡": 2735,
    "浣": 2736,
    "浥": 2737,
    "浦": 2738,
    "浩": 2739,
    "浪": 2740,
    "浮": 2741,
    "浴": 2742,
    "海": 2743,
    "浸": 2744,
    "浹": 2745,
    "浼": 2746,
    "涂": 2747,
    "涇": 2748,
    "消": 2749,
    "涉": 2750,
    "涌": 2751,
    "涎": 2752,
    "涓": 2753,
    "涔": 2754,
    "涕": 2755,
    "涘": 2756,
    "涛": 2757,
    "涝": 2758,
    "涟": 2759,
    "涤": 2760,
    "润": 2761,
    "涧": 2762,
    "涨": 2763,
    "涩": 2764,
    "涪": 2765,
    "涬": 2766,
    "涯": 2767,
    "液": 2768,
    "涴": 2769,
    "涵": 2770,
    "涸": 2771,
    "涼": 2772,
    "涿": 2773,
    "淅": 2774,
    "淇": 2775,
    "淋": 2776,
    "淑": 2777,
    "淒": 2778,
    "淘": 2779,
    "淙": 2780,
    "淚": 2781,
    "淡": 2782,
    "淥": 2783,
    "淨": 2784,
    "淪": 2785,
    "淫": 2786,
    "淮": 2787,
    "深": 2788,
    "淳": 2789,
    "淵": 2790,
    "混": 2791,
    "淹": 2792,
    "淺": 2793,
    "添": 2794,
    "淼": 2795,
    "清": 2796,
    "渊": 2797,
    "渌": 2798,
    "渍": 2799,
    "渐": 2800,
    "渑": 2801,
    "渔": 2802,
    "渙": 2803,
    "渚": 2804,
    "減": 2805,
    "渝": 2806,
    "渠": 2807,
    "渡": 2808,
    "渤": 2809,
    "渥": 2810,
    "温": 2811,
    "測": 2812,
    "渭": 2813,
    "港": 2814,
    "渴": 2815,
    "游": 2816,
    "渺": 2817,
    "渾": 2818,
    "湄": 2819,
    "湊": 2820,
    "湌": 2821,
    "湍": 2822,
    "湎": 2823,
    "湓": 2824,
    "湔": 2825,
    "湖": 2826,
    "湘": 2827,
    "湛": 2828,
    "湜": 2829,
    "湟": 2830,
    "湧": 2831,
    "湩": 2832,
    "湮": 2833,
    "湯": 2834,
    "湲": 2835,
    "湾": 2836,
    "湿": 2837,
    "溅": 2838,
    "溆": 2839,
    "溉": 2840,
    "源": 2841,
    "溓": 2842,
    "準": 2843,
    "溜": 2844,
    "溝": 2845,
    "溟": 2846,
    "溢": 2847,
    "溥": 2848,
    "溧": 2849,
    "溪": 2850,
    "溫": 2851,
    "溯": 2852,
    "溱": 2853,
    "溶": 2854,
    "溺": 2855,
    "溼": 2856,
    "滁": 2857,
    "滂": 2858,
    "滄": 2859,
    "滅": 2860,
    "滇": 2861,
    "滉": 2862,
    "滋": 2863,
    "滌": 2864,
    "滑": 2865,
    "滔": 2866,
    "滕": 2867,
    "滚": 2868,
    "滞": 2869,
    "滟": 2870,
    "满": 2871,
    "滤": 2872,
    "滥": 2873,
    "滨": 2874,
    "滩": 2875,
    "滮": 2876,
    "滯": 2877,
    "滴": 2878,
    "滸": 2879,
    "滹": 2880,
    "滻": 2881,
    "滿": 2882,
    "漁": 2883,
    "漂": 2884,
    "漆": 2885,
    "漉": 2886,
    "漏": 2887,
    "漓": 2888,
    "演": 2889,
    "漕": 2890,
    "漙": 2891,
    "漝": 2892,
    "漠": 2893,
    "漢": 2894,
    "漣": 2895,
    "漪": 2896,
    "漫": 2897,
    "漬": 2898,
    "漭": 2899,
    "漯": 2900,
    "漱": 2901,
    "漲": 2902,
    "漳": 2903,
    "漸": 2904,
    "漾": 2905,
    "漿": 2906,
    "潁": 2907,
    "潇": 2908,
    "潋": 2909,
    "潔": 2910,
    "潘": 2911,
    "潛": 2912,
    "潜": 2913,
    "潞": 2914,
    "潢": 2915,
    "潤": 2916,
    "潦": 2917,
    "潭": 2918,
    "潮": 2919,
    "潯": 2920,
    "潰": 2921,
    "潸": 2922,
    "潺": 2923,
    "潾": 2924,
    "澀": 2925,
    "澄": 2926,
    "澆": 2927,
    "澈": 2928,
    "澌": 2929,
    "澗": 2930,
    "澘": 2931,
    "澜": 2932,
    "澡": 2933,
    "澤": 2934,
    "澥": 2935,
    "澧": 2936,
    "澮": 2937,
    "澳": 2938,
    "澶": 2939,
    "澹": 2940,
    "激": 2941,
    "濁": 2942,
    "濃": 2943,
    "濊": 2944,
    "濑": 2945,
    "濘": 2946,
    "濛": 2947,
    "濟": 2948,
    "濠": 2949,
    "濡": 2950,
    "濤": 2951,
    "濩": 2952,
    "濫": 2953,
    "濬": 2954,
    "濯": 2955,
    "濱": 2956,
    "濺": 2957,
    "瀁": 2958,
    "瀆": 2959,
    "瀉": 2960,
    "瀏": 2961,
    "瀑": 2962,
    "瀘": 2963,
    "瀚": 2964,
    "瀛": 2965,
    "瀝": 2966,
    "瀟": 2967,
    "瀨": 2968,
    "瀰": 2969,
    "瀲": 2970,
    "瀹": 2971,
    "瀾": 2972,
    "灌": 2973,
    "灏": 2974,
    "灑": 2975,
    "灕": 2976,
    "灘": 2977,
    "灞": 2978,
    "灣": 2979,
    "灩": 2980,
    "火": 2981,
    "灭": 2982,
    "灯": 2983,
    "灰": 2984,
    "灵": 2985,
    "灼": 2986,
    "災": 2987,
    "灾": 2988,
    "灿": 2989,
    "炅": 2990,
    "炉": 2991,
    "炊": 2992,
    "炎": 2993,
    "炙": 2994,
    "炧": 2995,
    "炫": 2996,
    "炬": 2997,
    "炭": 2998,
    "炮": 2999,
    "炯": 3000,
    "炰": 3001,
    "炳": 3002,
    "炷": 3003,
    "点": 3004,
    "為": 3005,
    "炼": 3006,
    "炽": 3007,
    "烂": 3008,
    "烈": 3009,
    "烏": 3010,
    "烘": 3011,
    "烛": 3012,
    "烜": 3013,
    "烝": 3014,
    "烟": 3015,
    "烦": 3016,
    "烧": 3017,
    "烬": 3018,
    "热": 3019,
    "烹": 3020,
    "烽": 3021,
    "焉": 3022,
    "焊": 3023,
    "焕": 3024,
    "焙": 3025,
    "焚": 3026,
    "無": 3027,
    "焦": 3028,
    "焰": 3029,
    "然": 3030,
    "煁": 3031,
    "煅": 3032,
    "煉": 3033,
    "煌": 3034,
    "煎": 3035,
    "煑": 3036,
    "煖": 3037,
    "煙": 3038,
    "煞": 3039,
    "煠": 3040,
    "煢": 3041,
    "煤": 3042,
    "煥": 3043,
    "煦": 3044,
    "照": 3045,
    "煨": 3046,
    "煩": 3047,
    "煬": 3048,
    "煮": 3049,
    "煴": 3050,
    "熄": 3051,
    "熊": 3052,
    "熏": 3053,
    "熒": 3054,
    "熔": 3055,
    "熙": 3056,
    "熟": 3057,
    "熠": 3058,
    "熨": 3059,
    "熬": 3060,
    "熱": 3061,
    "熳": 3062,
    "熹": 3063,
    "熾": 3064,
    "燃": 3065,
    "燄": 3066,
    "燈": 3067,
    "燎": 3068,
    "燑": 3069,
    "燒": 3070,
    "燔": 3071,
    "燕": 3072,
    "營": 3073,
    "燠": 3074,
    "燦": 3075,
    "燧": 3076,
    "燭": 3077,
    "燼": 3078,
    "爆": 3079,
    "爇": 3080,
    "爍": 3081,
    "爐": 3082,
    "爚": 3083,
    "爛": 3084,
    "爟": 3085,
    "爨": 3086,
    "爪": 3087,
    "爭": 3088,
    "爰": 3089,
    "爱": 3090,
    "爲": 3091,
    "爵": 3092,
    "父": 3093,
    "爷": 3094,
    "爻": 3095,
    "爽": 3096,
    "爾": 3097,
    "牀": 3098,
    "牁": 3099,
    "牂": 3100,
    "牆": 3101,
    "片": 3102,
    "版": 3103,
    "牌": 3104,
    "牓": 3105,
    "牖": 3106,
    "牘": 3107,
    "牙": 3108,
    "牛": 3109,
    "牝": 3110,
    "牡": 3111,
    "牢": 3112,
    "牣": 3113,
    "牧": 3114,
    "物": 3115,
    "牲": 3116,
    "牵": 3117,
    "牷": 3118,
    "特": 3119,
    "牼": 3120,
    "牽": 3121,
    "犀": 3122,
    "犁": 3123,
    "犂": 3124,
    "犊": 3125,
    "犒": 3126,
    "犢": 3127,
    "犧": 3128,
    "犬": 3129,
    "犯": 3130,
    "状": 3131,
    "犹": 3132,
    "狀": 3133,
    "狂": 3134,
    "狄": 3135,
    "狎": 3136,
    "狐": 3137,
    "狗": 3138,
    "狙": 3139,
    "狡": 3140,
    "狨": 3141,
    "狩": 3142,
    "独": 3143,
    "狭": 3144,
    "狮": 3145,
    "狱": 3146,
    "狵": 3147,
    "狸": 3148,
    "狹": 3149,
    "狼": 3150,
    "猊": 3151,
    "猎": 3152,
    "猖": 3153,
    "猗": 3154,
    "猛": 3155,
    "猜": 3156,
    "猝": 3157,
    "猨": 3158,
    "猩": 3159,
    "献": 3160,
    "猱": 3161,
    "猴": 3162,
    "猶": 3163,
    "猷": 3164,
    "猿": 3165,
    "獄": 3166,
    "獎": 3167,
    "獧": 3168,
    "獨": 3169,
    "獯": 3170,
    "獰": 3171,
    "獲": 3172,
    "獵": 3173,
    "獷": 3174,
    "獸": 3175,
    "獺": 3176,
    "獻": 3177,
    "玄": 3178,
    "率": 3179,
    "玉": 3180,
    "王": 3181,
    "玎": 3182,
    "玑": 3183,
    "玕": 3184,
    "玦": 3185,
    "玩": 3186,
    "玫": 3187,
    "环": 3188,
    "现": 3189,
    "玲": 3190,
    "玳": 3191,
    "玷": 3192,
    "玻": 3193,
    "珀": 3194,
    "珂": 3195,
    "珈": 3196,
    "珊": 3197,
    "珍": 3198,
    "珑": 3199,
    "珠": 3200,
    "珤": 3201,
    "珥": 3202,
    "珩": 3203,
    "珪": 3204,
    "班": 3205,
    "珮": 3206,
    "珰": 3207,
    "珽": 3208,
    "球": 3209,
    "琅": 3210,
    "理": 3211,
    "琉": 3212,
    "琊": 3213,
    "琐": 3214,
    "琛": 3215,
    "琢": 3216,
    "琥": 3217,
    "琨": 3218,
    "琪": 3219,
    "琮": 3220,
    "琯": 3221,
    "琱": 3222,
    "琲": 3223,
    "琳": 3224,
    "琴": 3225,
    "琵": 3226,
    "琶": 3227,
    "琼": 3228,
    "瑁": 3229,
    "瑕": 3230,
    "瑚": 3231,
    "瑜": 3232,
    "瑞": 3233,
    "瑟": 3234,
    "瑠": 3235,
    "瑣": 3236,
    "瑤": 3237,
    "瑩": 3238,
    "瑰": 3239,
    "瑶": 3240,
    "瑾": 3241,
    "璀": 3242,
    "璁": 3243,
    "璃": 3244,
    "璆": 3245,
    "璇": 3246,
    "璈": 3247,
    "璚": 3248,
    "璜": 3249,
    "璞": 3250,
    "璣": 3251,
    "璧": 3252,
    "璨": 3253,
    "璫": 3254,
    "環": 3255,
    "璽": 3256,
    "璿": 3257,
    "瓊": 3258,
    "瓌": 3259,
    "瓏": 3260,
    "瓔": 3261,
    "瓚": 3262,
    "瓜": 3263,
    "瓠": 3264,
    "瓢": 3265,
    "瓦": 3266,
    "瓮": 3267,
    "瓯": 3268,
    "瓶": 3269,
    "瓷": 3270,
    "甃": 3271,
    "甄": 3272,
    "甍": 3273,
    "甎": 3274,
    "甑": 3275,
    "甒": 3276,
    "甖": 3277,
    "甘": 3278,
    "甚": 3279,
    "甜": 3280,
    "生": 3281,
    "產": 3282,
    "甥": 3283,
    "用": 3284,
    "甫": 3285,
    "甯": 3286,
    "田": 3287,
    "由": 3288,
    "甲": 3289,
    "申": 3290,
    "电": 3291,
    "男": 3292,
    "甸": 3293,
    "画": 3294,
    "畅": 3295,
    "畋": 3296,
    "界": 3297,
    "畎": 3298,
    "畏": 3299,
    "畐": 3300,
    "畔": 3301,
    "留": 3302,
    "畜": 3303,
    "畝": 3304,
    "畢": 3305,
    "畤": 3306,
    "略": 3307,
    "畦": 3308,
    "畧": 3309,
    "番": 3310,
    "畫": 3311,
    "畯": 3312,
    "異": 3313,
    "畲": 3314,
    "畴": 3315,
    "當": 3316,
    "畹": 3317,
    "畿": 3318,
    "疆": 3319,
    "疇": 3320,
    "疊": 3321,
    "疎": 3322,
    "疏": 3323,
    "疑": 3324,
    "疗": 3325,
    "疚": 3326,
    "疟": 3327,
    "疢": 3328,
    "疲": 3329,
    "疽": 3330,
    "疾": 3331,
    "病": 3332,
    "痎": 3333,
    "痒": 3334,
    "痕": 3335,
    "痛": 3336,
    "痴": 3337,
    "瘁": 3338,
    "瘐": 3339,
    "瘗": 3340,
    "瘞": 3341,
    "瘠": 3342,
    "瘦": 3343,
    "瘳": 3344,
    "瘴": 3345,
    "瘼": 3346,
    "癖": 3347,
    "癘": 3348,
    "癡": 3349,
    "癰": 3350,
    "登": 3351,
    "發": 3352,
    "白": 3353,
    "百": 3354,
    "皂": 3355,
    "的": 3356,
    "皆": 3357,
    "皇": 3358,
    "皋": 3359,
    "皎": 3360,
    "皐": 3361,
    "皓": 3362,
    "皙": 3363,
    "皜": 3364,
    "皞": 3365,
    "皦": 3366,
    "皪": 3367,
    "皮": 3368,
    "皱": 3369,
    "皿": 3370,
    "盂": 3371,
    "盆": 3372,
    "盈": 3373,
    "益": 3374,
    "盌": 3375,
    "盍": 3376,
    "盎": 3377,
    "盏": 3378,
    "盐": 3379,
    "监": 3380,
    "盒": 3381,
    "盖": 3382,
    "盘": 3383,
    "盛": 3384,
    "盜": 3385,
    "盟": 3386,
    "盡": 3387,
    "監": 3388,
    "盤": 3389,
    "盥": 3390,
    "盧": 3391,
    "盪": 3392,
    "目": 3393,
    "盰": 3394,
    "盱": 3395,
    "盲": 3396,
    "直": 3397,
    "相": 3398,
    "盻": 3399,
    "盼": 3400,
    "省": 3401,
    "眄": 3402,
    "眇": 3403,
    "眉": 3404,
    "眊": 3405,
    "看": 3406,
    "真": 3407,
    "眠": 3408,
    "眢": 3409,
    "眦": 3410,
    "眨": 3411,
    "眩": 3412,
    "眷": 3413,
    "眸": 3414,
    "眺": 3415,
    "眼": 3416,
    "眾": 3417,
    "着": 3418,
    "睇": 3419,
    "睊": 3420,
    "睚": 3421,
    "睛": 3422,
    "睟": 3423,
    "睠": 3424,
    "睡": 3425,
    "睢": 3426,
    "督": 3427,
    "睥": 3428,
    "睦": 3429,
    "睨": 3430,
    "睫": 3431,
    "睹": 3432,
    "睽": 3433,
    "睿": 3434,
    "瞋": 3435,
    "瞍": 3436,
    "瞎": 3437,
    "瞑": 3438,
    "瞞": 3439,
    "瞠": 3440,
    "瞢": 3441,
    "瞥": 3442,
    "瞪": 3443,
    "瞬": 3444,
    "瞭": 3445,
    "瞰": 3446,
    "瞳": 3447,
    "瞷": 3448,
    "瞻": 3449,
    "瞽": 3450,
    "瞿": 3451,
    "矂": 3452,
    "矍": 3453,
    "矗": 3454,
    "矙": 3455,
    "矚": 3456,
    "矛": 3457,
    "矜": 3458,
    "矢": 3459,
    "矣": 3460,
    "知": 3461,
    "矧": 3462,
    "矩": 3463,
    "矫": 3464,
    "短": 3465,
    "矮": 3466,
    "矯": 3467,
    "矰": 3468,
    "石": 3469,
    "矶": 3470,
    "矻": 3471,
    "矾": 3472,
    "砂": 3473,
    "砅": 3474,
    "砉": 3475,
    "砌": 3476,
    "砑": 3477,
    "砒": 3478,
    "研": 3479,
    "砖": 3480,
    "砚": 3481,
    "砢": 3482,
    "砥": 3483,
    "砧": 3484,
    "砰": 3485,
    "破": 3486,
    "砾": 3487,
    "础": 3488,
    "硬": 3489,
    "碌": 3490,
    "碍": 3491,
    "碎": 3492,
    "碑": 3493,
    "碓": 3494,
    "碗": 3495,
    "碛": 3496,
    "碣": 3497,
    "碧": 3498,
    "碩": 3499,
    "碪": 3500,
    "碭": 3501,
    "碾": 3502,
    "磊": 3503,
    "磋": 3504,
    "磔": 3505,
    "磥": 3506,
    "磧": 3507,
    "磨": 3508,
    "磬": 3509,
    "磯": 3510,
    "磴": 3511,
    "磵": 3512,
    "磻": 3513,
    "磽": 3514,
    "礎": 3515,
    "礙": 3516,
    "礜": 3517,
    "礪": 3518,
    "礫": 3519,
    "示": 3520,
    "礼": 3521,
    "社": 3522,
    "祀": 3523,
    "祁": 3524,
    "祅": 3525,
    "祇": 3526,
    "祈": 3527,
    "祉": 3528,
    "祊": 3529,
    "祏": 3530,
    "祐": 3531,
    "祓": 3532,
    "祕": 3533,
    "祖": 3534,
    "祗": 3535,
    "祚": 3536,
    "祜": 3537,
    "祝": 3538,
    "神": 3539,
    "祠": 3540,
    "祥": 3541,
    "祧": 3542,
    "祭": 3543,
    "祲": 3544,
    "祷": 3545,
    "祸": 3546,
    "祺": 3547,
    "祼": 3548,
    "祿": 3549,
    "禀": 3550,
    "禁": 3551,
    "禄": 3552,
    "禅": 3553,
    "禊": 3554,
    "禋": 3555,
    "禍": 3556,
    "禎": 3557,
    "福": 3558,
    "禔": 3559,
    "禗": 3560,
    "禘": 3561,
    "禜": 3562,
    "禦": 3563,
    "禧": 3564,
    "禩": 3565,
    "禪": 3566,
    "禮": 3567,
    "禰": 3568,
    "禱": 3569,
    "禹": 3570,
    "离": 3571,
    "禽": 3572,
    "禾": 3573,
    "禿": 3574,
    "秀": 3575,
    "私": 3576,
    "秃": 3577,
    "秉": 3578,
    "秋": 3579,
    "种": 3580,
    "科": 3581,
    "秕": 3582,
    "秖": 3583,
    "秘": 3584,
    "租": 3585,
    "秣": 3586,
    "秦": 3587,
    "秧": 3588,
    "秩": 3589,
    "秫": 3590,
    "秬": 3591,
    "积": 3592,
    "称": 3593,
    "秺": 3594,
    "移": 3595,
    "秾": 3596,
    "稀": 3597,
    "稅": 3598,
    "程": 3599,
    "稍": 3600,
    "稔": 3601,
    "稗": 3602,
    "稙": 3603,
    "稚": 3604,
    "稜": 3605,
    "稟": 3606,
    "稠": 3607,
    "種": 3608,
    "稱": 3609,
    "稳": 3610,
    "稷": 3611,
    "稻": 3612,
    "稼": 3613,
    "稽": 3614,
    "稿": 3615,
    "穀": 3616,
    "穆": 3617,
    "穉": 3618,
    "積": 3619,
    "穎": 3620,
    "穗": 3621,
    "穟": 3622,
    "穠": 3623,
    "穡": 3624,
    "穢": 3625,
    "穩": 3626,
    "穰": 3627,
    "穴": 3628,
    "究": 3629,
    "穷": 3630,
    "穹": 3631,
    "空": 3632,
    "穽": 3633,
    "穿": 3634,
    "突": 3635,
    "窃": 3636,
    "窄": 3637,
    "窅": 3638,
    "窈": 3639,
    "窊": 3640,
    "窍": 3641,
    "窕": 3642,
    "窗": 3643,
    "窟": 3644,
    "窠": 3645,
    "窣": 3646,
    "窥": 3647,
    "窦": 3648,
    "窮": 3649,
    "窵": 3650,
    "窸": 3651,
    "窺": 3652,
    "竁": 3653,
    "竄": 3654,
    "竇": 3655,
    "竈": 3656,
    "竊": 3657,
    "立": 3658,
    "竖": 3659,
    "竝": 3660,
    "竞": 3661,
    "竟": 3662,
    "章": 3663,
    "童": 3664,
    "竦": 3665,
    "竫": 3666,
    "竭": 3667,
    "端": 3668,
    "競": 3669,
    "竹": 3670,
    "竺": 3671,
    "竽": 3672,
    "竿": 3673,
    "笄": 3674,
    "笈": 3675,
    "笋": 3676,
    "笏": 3677,
    "笑": 3678,
    "笔": 3679,
    "笙": 3680,
    "笛": 3681,
    "笞": 3682,
    "笠": 3683,
    "笥": 3684,
    "符": 3685,
    "第": 3686,
    "笳": 3687,
    "笺": 3688,
    "笻": 3689,
    "笼": 3690,
    "筆": 3691,
    "筇": 3692,
    "筈": 3693,
    "等": 3694,
    "筋": 3695,
    "筌": 3696,
    "筍": 3697,
    "筏": 3698,
    "筐": 3699,
    "筑": 3700,
    "筒": 3701,
    "筓": 3702,
    "答": 3703,
    "策": 3704,
    "筛": 3705,
    "筝": 3706,
    "筠": 3707,
    "筦": 3708,
    "筭": 3709,
    "筯": 3710,
    "筱": 3711,
    "筵": 3712,
    "筹": 3713,
    "签": 3714,
    "简": 3715,
    "箇": 3716,
    "箏": 3717,
    "箓": 3718,
    "箔": 3719,
    "箕": 3720,
    "算": 3721,
    "箙": 3722,
    "箜": 3723,
    "箠": 3724,
    "管": 3725,
    "箧": 3726,
    "箨": 3727,
    "箪": 3728,
    "箫": 3729,
    "箬": 3730,
    "箭": 3731,
    "箱": 3732,
    "箴": 3733,
    "箸": 3734,
    "箾": 3735,
    "節": 3736,
    "篁": 3737,
    "範": 3738,
    "篆": 3739,
    "篇": 3740,
    "築": 3741,
    "篋": 3742,
    "篌": 3743,
    "篔": 3744,
    "篘": 3745,
    "篙": 3746,
    "篚": 3747,
    "篠": 3748,
    "篡": 3749,
    "篤": 3750,
    "篥": 3751,
    "篦": 3752,
    "篪": 3753,
    "篮": 3754,
    "篱": 3755,
    "篲": 3756,
    "篳": 3757,
    "篷": 3758,
    "篸": 3759,
    "篽": 3760,
    "簇": 3761,
    "簉": 3762,
    "簋": 3763,
    "簌": 3764,
    "簞": 3765,
    "簟": 3766,
    "簠": 3767,
    "簡": 3768,
    "簣": 3769,
    "簦": 3770,
    "簧": 3771,
    "簪": 3772,
    "簫": 3773,
    "簷": 3774,
    "簸": 3775,
    "簹": 3776,
    "簾": 3777,
    "簿": 3778,
    "籁": 3779,
    "籌": 3780,
    "籍": 3781,
    "籙": 3782,
    "籞": 3783,
    "籟": 3784,
    "籠": 3785,
    "籤": 3786,
    "籥": 3787,
    "籩": 3788,
    "籬": 3789,
    "米": 3790,
    "类": 3791,
    "粃": 3792,
    "粉": 3793,
    "粒": 3794,
    "粗": 3795,
    "粘": 3796,
    "粟": 3797,
    "粢": 3798,
    "粤": 3799,
    "粥": 3800,
    "粧": 3801,
    "粱": 3802,
    "粲": 3803,
    "粳": 3804,
    "粵": 3805,
    "粹": 3806,
    "粽": 3807,
    "精": 3808,
    "糁": 3809,
    "糉": 3810,
    "糖": 3811,
    "糗": 3812,
    "糜": 3813,
    "糞": 3814,
    "糠": 3815,
    "糦": 3816,
    "糧": 3817,
    "糯": 3818,
    "糴": 3819,
    "糵": 3820,
    "系": 3821,
    "紀": 3822,
    "紂": 3823,
    "約": 3824,
    "紅": 3825,
    "紆": 3826,
    "紈": 3827,
    "紉": 3828,
    "紋": 3829,
    "納": 3830,
    "紐": 3831,
    "純": 3832,
    "紗": 3833,
    "紘": 3834,
    "紙": 3835,
    "紛": 3836,
    "紝": 3837,
    "紞": 3838,
    "素": 3839,
    "索": 3840,
    "紧": 3841,
    "紫": 3842,
    "累": 3843,
    "細": 3844,
    "紱": 3845,
    "紲": 3846,
    "紳": 3847,
    "紵": 3848,
    "紹": 3849,
    "紺": 3850,
    "紾": 3851,
    "終": 3852,
    "絃": 3853,
    "組": 3854,
    "絅": 3855,
    "結": 3856,
    "絕": 3857,
    "絛": 3858,
    "絜": 3859,
    "絞": 3860,
    "絡": 3861,
    "絢": 3862,
    "給": 3863,
    "絪": 3864,
    "絮": 3865,
    "統": 3866,
    "絲": 3867,
    "絳": 3868,
    "絺": 3869,
    "綃": 3870,
    "綆": 3871,
    "綌": 3872,
    "綏": 3873,
    "經": 3874,
    "綜": 3875,
    "綠": 3876,
    "綢": 3877,
    "綣": 3878,
    "綫": 3879,
    "綬": 3880,
    "維": 3881,
    "綯": 3882,
    "綰": 3883,
    "綱": 3884,
    "網": 3885,
    "綳": 3886,
    "綴": 3887,
    "綵": 3888,
    "綷": 3889,
    "綸": 3890,
    "綺": 3891,
    "綻": 3892,
    "綽": 3893,
    "綾": 3894,
    "綿": 3895,
    "緊": 3896,
    "緋": 3897,
    "緒": 3898,
    "緗": 3899,
    "緘": 3900,
    "線": 3901,
    "緜": 3902,
    "緝": 3903,
    "締": 3904,
    "緡": 3905,
    "緣": 3906,
    "緦": 3907,
    "編": 3908,
    "緩": 3909,
    "緬": 3910,
    "緯": 3911,
    "緱": 3912,
    "緲": 3913,
    "練": 3914,
    "緹": 3915,
    "緼": 3916,
    "縈": 3917,
    "縑": 3918,
    "縛": 3919,
    "縞": 3920,
    "縟": 3921,
    "縠": 3922,
    "縣": 3923,
    "縫": 3924,
    "縮": 3925,
    "縱": 3926,
    "縲": 3927,
    "縵": 3928,
    "縶": 3929,
    "縷": 3930,
    "縹": 3931,
    "縻": 3932,
    "總": 3933,
    "績": 3934,
    "繁": 3935,
    "繅": 3936,
    "繆": 3937,
    "繇": 3938,
    "繐": 3939,
    "繒": 3940,
    "織": 3941,
    "繙": 3942,
    "繚": 3943,
    "繞": 3944,
    "繡": 3945,
    "繢": 3946,
    "繩": 3947,
    "繫": 3948,
    "繭": 3949,
    "繳": 3950,
    "繹": 3951,
    "繻": 3952,
    "繼": 3953,
    "繽": 3954,
    "繾": 3955,
    "纁": 3956,
    "纂": 3957,
    "纈": 3958,
    "纊": 3959,
    "續": 3960,
    "纍": 3961,
    "纏": 3962,
    "纑": 3963,
    "纓": 3964,
    "纔": 3965,
    "纖": 3966,
    "纘": 3967,
    "纛": 3968,
    "纜": 3969,
    "纡": 3970,
    "红": 3971,
    "纤": 3972,
    "约": 3973,
    "纨": 3974,
    "纪": 3975,
    "纫": 3976,
    "纬": 3977,
    "纭": 3978,
    "纯": 3979,
    "纱": 3980,
    "纲": 3981,
    "纳": 3982,
    "纵": 3983,
    "纶": 3984,
    "纷": 3985,
    "纸": 3986,
    "纹": 3987,
    "纻": 3988,
    "线": 3989,
    "绀": 3990,
    "绁": 3991,
    "练": 3992,
    "组": 3993,
    "绅": 3994,
    "细": 3995,
    "织": 3996,
    "终": 3997,
    "绊": 3998,
    "绋": 3999,
    "绍": 4000,
    "绎": 4001,
    "经": 4002,
    "结": 4003,
    "绔": 4004,
    "绕": 4005,
    "绘": 4006,
    "绛": 4007,
    "络": 4008,
    "绝": 4009,
    "统": 4010,
    "绠": 4011,
    "绡": 4012,
    "绣": 4013,
    "绦": 4014,
    "继": 4015,
    "绪": 4016,
    "绫": 4017,
    "续": 4018,
    "绮": 4019,
    "绯": 4020,
    "绰": 4021,
    "绳": 4022,
    "维": 4023,
    "绵": 4024,
    "绶": 4025,
    "绸": 4026,
    "绻": 4027,
    "综": 4028,
    "绽": 4029,
    "绾": 4030,
    "绿": 4031,
    "缀": 4032,
    "缁": 4033,
    "缃": 4034,
    "缄": 4035,
    "缅": 4036,
    "缆": 4037,
    "缇": 4038,
    "缈": 4039,
    "缑": 4040,
    "缓": 4041,
    "缕": 4042,
    "编": 4043,
    "缘": 4044,
    "缚": 4045,
    "缝": 4046,
    "缟": 4047,
    "缠": 4048,
    "缡": 4049,
    "缣": 4050,
    "缤": 4051,
    "缥": 4052,
    "缦": 4053,
    "缧": 4054,
    "缨": 4055,
    "缪": 4056,
    "缬": 4057,
    "缭": 4058,
    "缯": 4059,
    "缰": 4060,
    "缱": 4061,
    "缲": 4062,
    "缵": 4063,
    "缸": 4064,
    "缺": 4065,
    "缾": 4066,
    "罄": 4067,
    "罅": 4068,
    "罇": 4069,
    "罍": 4070,
    "网": 4071,
    "罔": 4072,
    "罕": 4073,
    "罗": 4074,
    "罘": 4075,
    "罚": 4076,
    "罝": 4077,
    "罟": 4078,
    "罢": 4079,
    "罥": 4080,
    "罨": 4081,
    "罩": 4082,
    "罪": 4083,
    "置": 4084,
    "罰": 4085,
    "署": 4086,
    "罳": 4087,
    "罷": 4088,
    "羁": 4089,
    "羅": 4090,
    "羆": 4091,
    "羇": 4092,
    "羈": 4093,
    "羊": 4094,
    "羌": 4095,
    "美": 4096,
    "羔": 4097,
    "羞": 4098,
    "羡": 4099,
    "羣": 4100,
    "群": 4101,
    "羨": 4102,
    "義": 4103,
    "羯": 4104,
    "羲": 4105,
    "羶": 4106,
    "羸": 4107,
    "羹": 4108,
    "羽": 4109,
    "羿": 4110,
    "翁": 4111,
    "翅": 4112,
    "翊": 4113,
    "翍": 4114,
    "翎": 4115,
    "習": 4116,
    "翔": 4117,
    "翕": 4118,
    "翘": 4119,
    "翟": 4120,
    "翠": 4121,
    "翡": 4122,
    "翥": 4123,
    "翦": 4124,
    "翩": 4125,
    "翫": 4126,
    "翬": 4127,
    "翮": 4128,
    "翰": 4129,
    "翱": 4130,
    "翳": 4131,
    "翹": 4132,
    "翻": 4133,
    "翼": 4134,
    "翾": 4135,
    "耀": 4136,
    "老": 4137,
    "考": 4138,
    "耄": 4139,
    "者": 4140,
    "耆": 4141,
    "而": 4142,
    "耍": 4143,
    "耐": 4144,
    "耒": 4145,
    "耕": 4146,
    "耗": 4147,
    "耘": 4148,
    "耜": 4149,
    "耦": 4150,
    "耨": 4151,
    "耰": 4152,
    "耳": 4153,
    "耶": 4154,
    "耸": 4155,
    "耻": 4156,
    "耽": 4157,
    "耿": 4158,
    "聆": 4159,
    "聊": 4160,
    "职": 4161,
    "聒": 4162,
    "联": 4163,
    "聖": 4164,
    "聘": 4165,
    "聚": 4166,
    "聞": 4167,
    "聪": 4168,
    "聯": 4169,
    "聰": 4170,
    "聱": 4171,
    "聲": 4172,
    "聳": 4173,
    "聶": 4174,
    "職": 4175,
    "聽": 4176,
    "聾": 4177,
    "聿": 4178,
    "肃": 4179,
    "肅": 4180,
    "肆": 4181,
    "肇": 4182,
    "肉": 4183,
    "肌": 4184,
    "肎": 4185,
    "肓": 4186,
    "肖": 4187,
    "肘": 4188,
    "肚": 4189,
    "肝": 4190,
    "肠": 4191,
    "股": 4192,
    "肢": 4193,
    "肤": 4194,
    "肥": 4195,
    "肩": 4196,
    "肫": 4197,
    "肯": 4198,
    "肱": 4199,
    "育": 4200,
    "肴": 4201,
    "肸": 4202,
    "肺": 4203,
    "肾": 4204,
    "肿": 4205,
    "胁": 4206,
    "胄": 4207,
    "胆": 4208,
    "背": 4209,
    "胎": 4210,
    "胖": 4211,
    "胙": 4212,
    "胜": 4213,
    "胝": 4214,
    "胡": 4215,
    "胤": 4216,
    "胥": 4217,
    "胧": 4218,
    "胭": 4219,
    "胯": 4220,
    "胶": 4221,
    "胷": 4222,
    "胸": 4223,
    "能": 4224,
    "脂": 4225,
    "脅": 4226,
    "脆": 4227,
    "脈": 4228,
    "脉": 4229,
    "脊": 4230,
    "脍": 4231,
    "脐": 4232,
    "脑": 4233,
    "脚": 4234,
    "脣": 4235,
    "脤": 4236,
    "脩": 4237,
    "脫": 4238,
    "脯": 4239,
    "脰": 4240,
    "脱": 4241,
    "脸": 4242,
    "脾": 4243,
    "腆": 4244,
    "腊": 4245,
    "腋": 4246,
    "腐": 4247,
    "腑": 4248,
    "腓": 4249,
    "腔": 4250,
    "腕": 4251,
    "腥": 4252,
    "腦": 4253,
    "腮": 4254,
    "腰": 4255,
    "腴": 4256,
    "腸": 4257,
    "腹": 4258,
    "腻": 4259,
    "腼": 4260,
    "腾": 4261,
    "膂": 4262,
    "膋": 4263,
    "膏": 4264,
    "膚": 4265,
    "膜": 4266,
    "膝": 4267,
    "膠": 4268,
    "膩": 4269,
    "膳": 4270,
    "膺": 4271,
    "膻": 4272,
    "膽": 4273,
    "膾": 4274,
    "臂": 4275,
    "臆": 4276,
    "臉": 4277,
    "臍": 4278,
    "臏": 4279,
    "臕": 4280,
    "臚": 4281,
    "臞": 4282,
    "臟": 4283,
    "臣": 4284,
    "臥": 4285,
    "臧": 4286,
    "臨": 4287,
    "自": 4288,
    "臭": 4289,
    "至": 4290,
    "致": 4291,
    "臺": 4292,
    "臻": 4293,
    "臼": 4294,
    "臾": 4295,
    "舁": 4296,
    "舂": 4297,
    "舄": 4298,
    "舅": 4299,
    "舆": 4300,
    "與": 4301,
    "興": 4302,
    "舉": 4303,
    "舊": 4304,
    "舌": 4305,
    "舍": 4306,
    "舒": 4307,
    "舜": 4308,
    "舞": 4309,
    "舟": 4310,
    "舠": 4311,
    "舣": 4312,
    "航": 4313,
    "舫": 4314,
    "般": 4315,
    "舰": 4316,
    "舳": 4317,
    "舴": 4318,
    "舵": 4319,
    "舷": 4320,
    "舸": 4321,
    "船": 4322,
    "舻": 4323,
    "艇": 4324,
    "艋": 4325,
    "艎": 4326,
    "艑": 4327,
    "艚": 4328,
    "艤": 4329,
    "艫": 4330,
    "艮": 4331,
    "良": 4332,
    "艰": 4333,
    "艱": 4334,
    "色": 4335,
    "艳": 4336,
    "艴": 4337,
    "艺": 4338,
    "艾": 4339,
    "节": 4340,
    "芊": 4341,
    "芍": 4342,
    "芎": 4343,
    "芒": 4344,
    "芗": 4345,
    "芙": 4346,
    "芜": 4347,
    "芝": 4348,
    "芟": 4349,
    "芡": 4350,
    "芣": 4351,
    "芥": 4352,
    "芦": 4353,
    "芨": 4354,
    "芬": 4355,
    "芭": 4356,
    "芰": 4357,
    "花": 4358,
    "芳": 4359,
    "芷": 4360,
    "芸": 4361,
    "芹": 4362,
    "芻": 4363,
    "芽": 4364,
    "苇": 4365,
    "苍": 4366,
    "苎": 4367,
    "苏": 4368,
    "苑": 4369,
    "苒": 4370,
    "苔": 4371,
    "苕": 4372,
    "苗": 4373,
    "苘": 4374,
    "苙": 4375,
    "苞": 4376,
    "苟": 4377,
    "苡": 4378,
    "若": 4379,
    "苦": 4380,
    "苧": 4381,
    "英": 4382,
    "苹": 4383,
    "苾": 4384,
    "茁": 4385,
    "茂": 4386,
    "范": 4387,
    "茄": 4388,
    "茅": 4389,
    "茆": 4390,
    "茉": 4391,
    "茍": 4392,
    "茎": 4393,
    "茏": 4394,
    "茗": 4395,
    "茜": 4396,
    "茧": 4397,
    "茨": 4398,
    "茫": 4399,
    "茭": 4400,
    "茱": 4401,
    "茲": 4402,
    "茵": 4403,
    "茶": 4404,
    "茸": 4405,
    "茹": 4406,
    "荃": 4407,
    "荅": 4408,
    "荆": 4409,
    "荇": 4410,
    "草": 4411,
    "荊": 4412,
    "荏": 4413,
    "荐": 4414,
    "荑": 4415,
    "荒": 4416,
    "荔": 4417,
    "荚": 4418,
    "荡": 4419,
    "荣": 4420,
    "荧": 4421,
    "荪": 4422,
    "荫": 4423,
    "药": 4424,
    "荷": 4425,
    "荻": 4426,
    "荼": 4427,
    "莅": 4428,
    "莉": 4429,
    "莊": 4430,
    "莎": 4431,
    "莒": 4432,
    "莓": 4433,
    "莖": 4434,
    "莘": 4435,
    "莞": 4436,
    "莠": 4437,
    "莩": 4438,
    "莫": 4439,
    "莱": 4440,
    "莲": 4441,
    "获": 4442,
    "莹": 4443,
    "莺": 4444,
    "莼": 4445,
    "莽": 4446,
    "莿": 4447,
    "菁": 4448,
    "菂": 4449,
    "菅": 4450,
    "菉": 4451,
    "菊": 4452,
    "菌": 4453,
    "菏": 4454,
    "菑": 4455,
    "菖": 4456,
    "菜": 4457,
    "菟": 4458,
    "菡": 4459,
    "菩": 4460,
    "華": 4461,
    "菰": 4462,
    "菱": 4463,
    "菲": 4464,
    "菹": 4465,
    "菽": 4466,
    "萃": 4467,
    "萄": 4468,
    "萊": 4469,
    "萋": 4470,
    "萌": 4471,
    "萍": 4472,
    "萎": 4473,
    "萏": 4474,
    "萝": 4475,
    "萤": 4476,
    "营": 4477,
    "萦": 4478,
    "萧": 4479,
    "萨": 4480,
    "萬": 4481,
    "萱": 4482,
    "萸": 4483,
    "萼": 4484,
    "落": 4485,
    "葆": 4486,
    "葉": 4487,
    "葑": 4488,
    "著": 4489,
    "葛": 4490,
    "葡": 4491,
    "董": 4492,
    "葩": 4493,
    "葫": 4494,
    "葬": 4495,
    "葭": 4496,
    "葱": 4497,
    "葳": 4498,
    "葵": 4499,
    "葶": 4500,
    "葺": 4501,
    "蒂": 4502,
    "蒉": 4503,
    "蒐": 4504,
    "蒙": 4505,
    "蒜": 4506,
    "蒞": 4507,
    "蒨": 4508,
    "蒲": 4509,
    "蒸": 4510,
    "蒹": 4511,
    "蒺": 4512,
    "蒼": 4513,
    "蒿": 4514,
    "蓁": 4515,
    "蓂": 4516,
    "蓄": 4517,
    "蓉": 4518,
    "蓋": 4519,
    "蓍": 4520,
    "蓐": 4521,
    "蓑": 4522,
    "蓓": 4523,
    "蓝": 4524,
    "蓠": 4525,
    "蓦": 4526,
    "蓪": 4527,
    "蓬": 4528,
    "蓮": 4529,
    "蓰": 4530,
    "蓴": 4531,
    "蓼": 4532,
    "蔌": 4533,
    "蔓": 4534,
    "蔕": 4535,
    "蔚": 4536,
    "蔡": 4537,
    "蔥": 4538,
    "蔫": 4539,
    "蔬": 4540,
    "蔭": 4541,
    "蔷": 4542,
    "蔻": 4543,
    "蔼": 4544,
    "蔽": 4545,
    "蕃": 4546,
    "蕉": 4547,
    "蕊": 4548,
    "蕖": 4549,
    "蕘": 4550,
    "蕙": 4551,
    "蕚": 4552,
    "蕢": 4553,
    "蕣": 4554,
    "蕤": 4555,
    "蕨": 4556,
    "蕩": 4557,
    "蕪": 4558,
    "蕭": 4559,
    "蕲": 4560,
    "蕺": 4561,
    "蕾": 4562,
    "薄": 4563,
    "薇": 4564,
    "薊": 4565,
    "薌": 4566,
    "薛": 4567,
    "薜": 4568,
    "薤": 4569,
    "薦": 4570,
    "薨": 4571,
    "薪": 4572,
    "薰": 4573,
    "薺": 4574,
    "薿": 4575,
    "藂": 4576,
    "藉": 4577,
    "藍": 4578,
    "藏": 4579,
    "藐": 4580,
    "藓": 4581,
    "藕": 4582,
    "藜": 4583,
    "藝": 4584,
    "藤": 4585,
    "藥": 4586,
    "藨": 4587,
    "藩": 4588,
    "藪": 4589,
    "藳": 4590,
    "藶": 4591,
    "藹": 4592,
    "藻": 4593,
    "藿": 4594,
    "蘂": 4595,
    "蘅": 4596,
    "蘆": 4597,
    "蘇": 4598,
    "蘊": 4599,
    "蘋": 4600,
    "蘖": 4601,
    "蘗": 4602,
    "蘚": 4603,
    "蘢": 4604,
    "蘧": 4605,
    "蘩": 4606,
    "蘭": 4607,
    "蘸": 4608,
    "蘼": 4609,
    "蘿": 4610,
    "虆": 4611,
    "虎": 4612,
    "虏": 4613,
    "虐": 4614,
    "虑": 4615,
    "虔": 4616,
    "處": 4617,
    "虚": 4618,
    "虛": 4619,
    "虜": 4620,
    "虞": 4621,
    "號": 4622,
    "虡": 4623,
    "虢": 4624,
    "虧": 4625,
    "虫": 4626,
    "虬": 4627,
    "虯": 4628,
    "虹": 4629,
    "虺": 4630,
    "虽": 4631,
    "虾": 4632,
    "虿": 4633,
    "蚁": 4634,
    "蚊": 4635,
    "蚋": 4636,
    "蚌": 4637,
    "蚓": 4638,
    "蚔": 4639,
    "蚕": 4640,
    "蚤": 4641,
    "蚩": 4642,
    "蛄": 4643,
    "蛇": 4644,
    "蛙": 4645,
    "蛚": 4646,
    "蛛": 4647,
    "蛟": 4648,
    "蛤": 4649,
    "蛩": 4650,
    "蛮": 4651,
    "蛱": 4652,
    "蛴": 4653,
    "蛸": 4654,
    "蛺": 4655,
    "蛾": 4656,
    "蜀": 4657,
    "蜂": 4658,
    "蜃": 4659,
    "蜉": 4660,
    "蜍": 4661,
    "蜓": 4662,
    "蜗": 4663,
    "蜘": 4664,
    "蜚": 4665,
    "蜜": 4666,
    "蜡": 4667,
    "蜩": 4668,
    "蜻": 4669,
    "蜿": 4670,
    "蝇": 4671,
    "蝉": 4672,
    "蝕": 4673,
    "蝟": 4674,
    "蝠": 4675,
    "蝣": 4676,
    "蝤": 4677,
    "蝥": 4678,
    "蝦": 4679,
    "蝮": 4680,
    "蝴": 4681,
    "蝶": 4682,
    "螀": 4683,
    "融": 4684,
    "螓": 4685,
    "螢": 4686,
    "螫": 4687,
    "螬": 4688,
    "螭": 4689,
    "螺": 4690,
    "螻": 4691,
    "螽": 4692,
    "螿": 4693,
    "蟀": 4694,
    "蟄": 4695,
    "蟆": 4696,
    "蟋": 4697,
    "蟜": 4698,
    "蟠": 4699,
    "蟪": 4700,
    "蟬": 4701,
    "蟲": 4702,
    "蟹": 4703,
    "蟺": 4704,
    "蟻": 4705,
    "蟾": 4706,
    "蠁": 4707,
    "蠅": 4708,
    "蠆": 4709,
    "蠟": 4710,
    "蠡": 4711,
    "蠨": 4712,
    "蠭": 4713,
    "蠲": 4714,
    "蠶": 4715,
    "蠹": 4716,
    "蠻": 4717,
    "血": 4718,
    "衆": 4719,
    "行": 4720,
    "衍": 4721,
    "術": 4722,
    "衔": 4723,
    "街": 4724,
    "衙": 4725,
    "衛": 4726,
    "衝": 4727,
    "衡": 4728,
    "衢": 4729,
    "衣": 4730,
    "补": 4731,
    "表": 4732,
    "衩": 4733,
    "衫": 4734,
    "衬": 4735,
    "衮": 4736,
    "衰": 4737,
    "衱": 4738,
    "衲": 4739,
    "衷": 4740,
    "衽": 4741,
    "衾": 4742,
    "衿": 4743,
    "袁": 4744,
    "袂": 4745,
    "袅": 4746,
    "袈": 4747,
    "袋": 4748,
    "袍": 4749,
    "袒": 4750,
    "袖": 4751,
    "袗": 4752,
    "袜": 4753,
    "被": 4754,
    "袭": 4755,
    "裀": 4756,
    "裁": 4757,
    "裂": 4758,
    "装": 4759,
    "裎": 4760,
    "裏": 4761,
    "裒": 4762,
    "裔": 4763,
    "裕": 4764,
    "裘": 4765,
    "裙": 4766,
    "裛": 4767,
    "補": 4768,
    "裝": 4769,
    "裟": 4770,
    "裤": 4771,
    "裨": 4772,
    "裯": 4773,
    "裳": 4774,
    "裴": 4775,
    "裸": 4776,
    "裹": 4777,
    "裼": 4778,
    "製": 4779,
    "裾": 4780,
    "複": 4781,
    "褊": 4782,
    "褐": 4783,
    "褒": 4784,
    "褓": 4785,
    "褔": 4786,
    "褕": 4787,
    "褘": 4788,
    "褥": 4789,
    "褧": 4790,
    "褪": 4791,
    "褫": 4792,
    "褭": 4793,
    "褰": 4794,
    "褵": 4795,
    "褷": 4796,
    "襁": 4797,
    "襄": 4798,
    "襜": 4799,
    "襞": 4800,
    "襟": 4801,
    "襠": 4802,
    "襦": 4803,
    "襪": 4804,
    "襲": 4805,
    "襽": 4806,
    "西": 4807,
    "要": 4808,
    "覃": 4809,
    "覆": 4810,
    "覈": 4811,
    "見": 4812,
    "規": 4813,
    "覓": 4814,
    "視": 4815,
    "覩": 4816,
    "親": 4817,
    "覯": 4818,
    "覰": 4819,
    "覲": 4820,
    "覸": 4821,
    "覺": 4822,
    "覽": 4823,
    "觀": 4824,
    "见": 4825,
    "观": 4826,
    "规": 4827,
    "觅": 4828,
    "视": 4829,
    "览": 4830,
    "觉": 4831,
    "觊": 4832,
    "觐": 4833,
    "觑": 4834,
    "角": 4835,
    "觚": 4836,
    "觜": 4837,
    "觝": 4838,
    "觞": 4839,
    "解": 4840,
    "觥": 4841,
    "触": 4842,
    "觫": 4843,
    "觳": 4844,
    "觴": 4845,
    "觸": 4846,
    "言": 4847,
    "訇": 4848,
    "計": 4849,
    "訊": 4850,
    "討": 4851,
    "訑": 4852,
    "訓": 4853,
    "訕": 4854,
    "託": 4855,
    "記": 4856,
    "訝": 4857,
    "訟": 4858,
    "訢": 4859,
    "訣": 4860,
    "訪": 4861,
    "設": 4862,
    "許": 4863,
    "訴": 4864,
    "詎": 4865,
    "詐": 4866,
    "詔": 4867,
    "評": 4868,
    "詖": 4869,
    "詞": 4870,
    "詠": 4871,
    "試": 4872,
    "詩": 4873,
    "詫": 4874,
    "詬": 4875,
    "詭": 4876,
    "詰": 4877,
    "話": 4878,
    "詳": 4879,
    "誅": 4880,
    "誇": 4881,
    "誉": 4882,
    "認": 4883,
    "誓": 4884,
    "誕": 4885,
    "誘": 4886,
    "語": 4887,
    "誠": 4888,
    "誡": 4889,
    "誣": 4890,
    "誤": 4891,
    "誥": 4892,
    "誦": 4893,
    "誨": 4894,
    "說": 4895,
    "誰": 4896,
    "課": 4897,
    "誼": 4898,
    "調": 4899,
    "諂": 4900,
    "諄": 4901,
    "談": 4902,
    "請": 4903,
    "諒": 4904,
    "諕": 4905,
    "論": 4906,
    "諗": 4907,
    "諛": 4908,
    "諟": 4909,
    "諠": 4910,
    "諧": 4911,
    "諫": 4912,
    "諭": 4913,
    "諱": 4914,
    "諳": 4915,
    "諸": 4916,
    "諺": 4917,
    "諾": 4918,
    "謀": 4919,
    "謁": 4920,
    "謂": 4921,
    "謐": 4922,
    "謔": 4923,
    "謗": 4924,
    "謙": 4925,
    "講": 4926,
    "謝": 4927,
    "謠": 4928,
    "謨": 4929,
    "謩": 4930,
    "謫": 4931,
    "謬": 4932,
    "謳": 4933,
    "謹": 4934,
    "謾": 4935,
    "譁": 4936,
    "譈": 4937,
    "證": 4938,
    "譎": 4939,
    "譏": 4940,
    "識": 4941,
    "譙": 4942,
    "譜": 4943,
    "譟": 4944,
    "警": 4945,
    "譬": 4946,
    "譯": 4947,
    "議": 4948,
    "譴": 4949,
    "護": 4950,
    "譽": 4951,
    "讀": 4952,
    "變": 4953,
    "讋": 4954,
    "讎": 4955,
    "讐": 4956,
    "讒": 4957,
    "讓": 4958,
    "讙": 4959,
    "计": 4960,
    "认": 4961,
    "讥": 4962,
    "讨": 4963,
    "让": 4964,
    "训": 4965,
    "议": 4966,
    "讯": 4967,
    "记": 4968,
    "讳": 4969,
    "讴": 4970,
    "讶": 4971,
    "许": 4972,
    "讹": 4973,
    "论": 4974,
    "讼": 4975,
    "设": 4976,
    "访": 4977,
    "诀": 4978,
    "证": 4979,
    "评": 4980,
    "识": 4981,
    "诉": 4982,
    "词": 4983,
    "诏": 4984,
    "试": 4985,
    "诗": 4986,
    "诙": 4987,
    "诚": 4988,
    "诛": 4989,
    "诜": 4990,
    "话": 4991,
    "诞": 4992,
    "询": 4993,
    "详": 4994,
    "诧": 4995,
    "诬": 4996,
    "语": 4997,
    "诮": 4998,
    "误": 4999,
    "说": 5000,
    "诵": 5001,
    "请": 5002,
    "诸": 5003,
    "诺": 5004,
    "读": 5005,
    "课": 5006,
    "谁": 5007,
    "调": 5008,
    "谅": 5009,
    "谈": 5010,
    "谋": 5011,
    "谏": 5012,
    "谐": 5013,
    "谑": 5014,
    "谒": 5015,
    "谓": 5016,
    "谔": 5017,
    "谗": 5018,
    "谙": 5019,
    "谛": 5020,
    "谢": 5021,
    "谣": 5022,
    "谤": 5023,
    "谦": 5024,
    "谩": 5025,
    "谪": 5026,
    "谯": 5027,
    "谱": 5028,
    "谷": 5029,
    "谹": 5030,
    "谿": 5031,
    "豁": 5032,
    "豆": 5033,
    "豈": 5034,
    "豎": 5035,
    "豐": 5036,
    "豔": 5037,
    "豕": 5038,
    "豗": 5039,
    "豚": 5040,
    "象": 5041,
    "豢": 5042,
    "豪": 5043,
    "豫": 5044,
    "豳": 5045,
    "豹": 5046,
    "豺": 5047,
    "貂": 5048,
    "貅": 5049,
    "貉": 5050,
    "貊": 5051,
    "貌": 5052,
    "貍": 5053,
    "貐": 5054,
    "貓": 5055,
    "貔": 5056,
    "貝": 5057,
    "貞": 5058,
    "負": 5059,
    "財": 5060,
    "貢": 5061,
    "貧": 5062,
    "貨": 5063,
    "販": 5064,
    "貪": 5065,
    "貫": 5066,
    "責": 5067,
    "貯": 5068,
    "貲": 5069,
    "貳": 5070,
    "貴": 5071,
    "貶": 5072,
    "買": 5073,
    "貸": 5074,
    "貺": 5075,
    "費": 5076,
    "貼": 5077,
    "貽": 5078,
    "貿": 5079,
    "賀": 5080,
    "賁": 5081,
    "賂": 5082,
    "資": 5083,
    "賈": 5084,
    "賊": 5085,
    "賒": 5086,
    "賓": 5087,
    "賚": 5088,
    "賜": 5089,
    "賞": 5090,
    "賢": 5091,
    "賣": 5092,
    "賤": 5093,
    "賦": 5094,
    "質": 5095,
    "賭": 5096,
    "賮": 5097,
    "賴": 5098,
    "賸": 5099,
    "賽": 5100,
    "贄": 5101,
    "贈": 5102,
    "贊": 5103,
    "贍": 5104,
    "贏": 5105,
    "贐": 5106,
    "贖": 5107,
    "贝": 5108,
    "负": 5109,
    "贡": 5110,
    "责": 5111,
    "贤": 5112,
    "败": 5113,
    "质": 5114,
    "贪": 5115,
    "贫": 5116,
    "贬": 5117,
    "贮": 5118,
    "贯": 5119,
    "贱": 5120,
    "贳": 5121,
    "贴": 5122,
    "贵": 5123,
    "贶": 5124,
    "费": 5125,
    "贺": 5126,
    "贽": 5127,
    "贾": 5128,
    "资": 5129,
    "赊": 5130,
    "赋": 5131,
    "赌": 5132,
    "赍": 5133,
    "赎": 5134,
    "赏": 5135,
    "赐": 5136,
    "赓": 5137,
    "赖": 5138,
    "赚": 5139,
    "赛": 5140,
    "赠": 5141,
    "赢": 5142,
    "赣": 5143,
    "赤": 5144,
    "赦": 5145,
    "赧": 5146,
    "赩": 5147,
    "赪": 5148,
    "赫": 5149,
    "赬": 5150,
    "赭": 5151,
    "走": 5152,
    "赴": 5153,
    "赵": 5154,
    "赶": 5155,
    "起": 5156,
    "趁": 5157,
    "趂": 5158,
    "超": 5159,
    "越": 5160,
    "趋": 5161,
    "趗": 5162,
    "趙": 5163,
    "趚": 5164,
    "趢": 5165,
    "趣": 5166,
    "趨": 5167,
    "趫": 5168,
    "趯": 5169,
    "足": 5170,
    "趺": 5171,
    "趾": 5172,
    "跂": 5173,
    "跃": 5174,
    "跋": 5175,
    "跌": 5176,
    "跎": 5177,
    "跑": 5178,
    "跖": 5179,
    "跗": 5180,
    "距": 5181,
    "跡": 5182,
    "跨": 5183,
    "跪": 5184,
    "路": 5185,
    "跱": 5186,
    "跲": 5187,
    "跳": 5188,
    "跷": 5189,
    "跸": 5190,
    "跹": 5191,
    "跻": 5192,
    "跼": 5193,
    "跽": 5194,
    "踉": 5195,
    "踏": 5196,
    "踐": 5197,
    "踘": 5198,
    "踞": 5199,
    "踟": 5200,
    "踢": 5201,
    "踣": 5202,
    "踪": 5203,
    "踯": 5204,
    "踰": 5205,
    "踵": 5206,
    "踽": 5207,
    "蹀": 5208,
    "蹁": 5209,
    "蹄": 5210,
    "蹇": 5211,
    "蹈": 5212,
    "蹉": 5213,
    "蹊": 5214,
    "蹋": 5215,
    "蹌": 5216,
    "蹏": 5217,
    "蹑": 5218,
    "蹕": 5219,
    "蹙": 5220,
    "蹝": 5221,
    "蹠": 5222,
    "蹤": 5223,
    "蹰": 5224,
    "蹲": 5225,
    "蹴": 5226,
    "蹶": 5227,
    "躅": 5228,
    "躇": 5229,
    "躋": 5230,
    "躍": 5231,
    "躑": 5232,
    "躔": 5233,
    "躕": 5234,
    "躚": 5235,
    "躝": 5236,
    "躞": 5237,
    "躡": 5238,
    "躧": 5239,
    "躩": 5240,
    "身": 5241,
    "躬": 5242,
    "躲": 5243,
    "軀": 5244,
    "車": 5245,
    "軋": 5246,
    "軌": 5247,
    "軍": 5248,
    "軒": 5249,
    "軔": 5250,
    "軫": 5251,
    "軸": 5252,
    "軻": 5253,
    "軾": 5254,
    "軿": 5255,
    "輀": 5256,
    "較": 5257,
    "輅": 5258,
    "輈": 5259,
    "載": 5260,
    "輒": 5261,
    "輓": 5262,
    "輔": 5263,
    "輕": 5264,
    "輝": 5265,
    "輟": 5266,
    "輦": 5267,
    "輩": 5268,
    "輪": 5269,
    "輭": 5270,
    "輯": 5271,
    "輶": 5272,
    "輸": 5273,
    "輾": 5274,
    "輿": 5275,
    "轂": 5276,
    "轄": 5277,
    "轅": 5278,
    "轆": 5279,
    "轉": 5280,
    "轍": 5281,
    "轓": 5282,
    "轔": 5283,
    "轘": 5284,
    "轝": 5285,
    "轟": 5286,
    "轡": 5287,
    "轢": 5288,
    "轤": 5289,
    "车": 5290,
    "轧": 5291,
    "轨": 5292,
    "轩": 5293,
    "转": 5294,
    "轮": 5295,
    "软": 5296,
    "轰": 5297,
    "轲": 5298,
    "轳": 5299,
    "轴": 5300,
    "轸": 5301,
    "轹": 5302,
    "轺": 5303,
    "轻": 5304,
    "载": 5305,
    "轿": 5306,
    "辂": 5307,
    "较": 5308,
    "辄": 5309,
    "辅": 5310,
    "辇": 5311,
    "辈": 5312,
    "辉": 5313,
    "辊": 5314,
    "辋": 5315,
    "辍": 5316,
    "辏": 5317,
    "辐": 5318,
    "输": 5319,
    "辔": 5320,
    "辗": 5321,
    "辘": 5322,
    "辚": 5323,
    "辛": 5324,
    "辜": 5325,
    "辞": 5326,
    "辟": 5327,
    "辨": 5328,
    "辭": 5329,
    "辯": 5330,
    "辰": 5331,
    "辱": 5332,
    "農": 5333,
    "边": 5334,
    "辽": 5335,
    "达": 5336,
    "迁": 5337,
    "迂": 5338,
    "迅": 5339,
    "过": 5340,
    "迎": 5341,
    "运": 5342,
    "近": 5343,
    "迓": 5344,
    "返": 5345,
    "还": 5346,
    "这": 5347,
    "进": 5348,
    "远": 5349,
    "违": 5350,
    "连": 5351,
    "迟": 5352,
    "迢": 5353,
    "迤": 5354,
    "迥": 5355,
    "迨": 5356,
    "迩": 5357,
    "迪": 5358,
    "迫": 5359,
    "迭": 5360,
    "述": 5361,
    "迳": 5362,
    "迴": 5363,
    "迷": 5364,
    "迸": 5365,
    "迹": 5366,
    "迺": 5367,
    "追": 5368,
    "退": 5369,
    "送": 5370,
    "适": 5371,
    "逃": 5372,
    "逄": 5373,
    "逅": 5374,
    "逆": 5375,
    "选": 5376,
    "逊": 5377,
    "逋": 5378,
    "逍": 5379,
    "透": 5380,
    "逐": 5381,
    "逑": 5382,
    "递": 5383,
    "途": 5384,
    "逕": 5385,
    "逖": 5386,
    "逗": 5387,
    "通": 5388,
    "逝": 5389,
    "逞": 5390,
    "速": 5391,
    "造": 5392,
    "逡": 5393,
    "逢": 5394,
    "連": 5395,
    "逦": 5396,
    "逮": 5397,
    "進": 5398,
    "逵": 5399,
    "逶": 5400,
    "逸": 5401,
    "逼": 5402,
    "逾": 5403,
    "遁": 5404,
    "遂": 5405,
    "遄": 5406,
    "遇": 5407,
    "遊": 5408,
    "運": 5409,
    "遍": 5410,
    "過": 5411,
    "遏": 5412,
    "遐": 5413,
    "遑": 5414,
    "遒": 5415,
    "道": 5416,
    "達": 5417,
    "違": 5418,
    "遗": 5419,
    "遙": 5420,
    "遝": 5421,
    "遞": 5422,
    "遠": 5423,
    "遣": 5424,
    "遥": 5425,
    "遨": 5426,
    "適": 5427,
    "遭": 5428,
    "遮": 5429,
    "遯": 5430,
    "遰": 5431,
    "遲": 5432,
    "遵": 5433,
    "遶": 5434,
    "遷": 5435,
    "選": 5436,
    "遺": 5437,
    "遼": 5438,
    "遽": 5439,
    "避": 5440,
    "邀": 5441,
    "邁": 5442,
    "邂": 5443,
    "邃": 5444,
    "還": 5445,
    "邇": 5446,
    "邈": 5447,
    "邊": 5448,
    "邑": 5449,
    "邕": 5450,
    "邙": 5451,
    "邛": 5452,
    "邠": 5453,
    "那": 5454,
    "邦": 5455,
    "邪": 5456,
    "邮": 5457,
    "邯": 5458,
    "邳": 5459,
    "邵": 5460,
    "邸": 5461,
    "邹": 5462,
    "邻": 5463,
    "郁": 5464,
    "郊": 5465,
    "郎": 5466,
    "郑": 5467,
    "郡": 5468,
    "郢": 5469,
    "部": 5470,
    "郭": 5471,
    "郵": 5472,
    "郸": 5473,
    "都": 5474,
    "鄂": 5475,
    "鄉": 5476,
    "鄒": 5477,
    "鄙": 5478,
    "鄜": 5479,
    "鄣": 5480,
    "鄭": 5481,
    "鄰": 5482,
    "鄲": 5483,
    "鄴": 5484,
    "鄹": 5485,
    "酆": 5486,
    "酊": 5487,
    "酌": 5488,
    "配": 5489,
    "酎": 5490,
    "酏": 5491,
    "酒": 5492,
    "酖": 5493,
    "酝": 5494,
    "酡": 5495,
    "酣": 5496,
    "酤": 5497,
    "酥": 5498,
    "酩": 5499,
    "酪": 5500,
    "酬": 5501,
    "酱": 5502,
    "酲": 5503,
    "酴": 5504,
    "酷": 5505,
    "酸": 5506,
    "酹": 5507,
    "酺": 5508,
    "酽": 5509,
    "酿": 5510,
    "醁": 5511,
    "醅": 5512,
    "醇": 5513,
    "醉": 5514,
    "醋": 5515,
    "醍": 5516,
    "醐": 5517,
    "醑": 5518,
    "醒": 5519,
    "醜": 5520,
    "醞": 5521,
    "醢": 5522,
    "醥": 5523,
    "醪": 5524,
    "醫": 5525,
    "醮": 5526,
    "醯": 5527,
    "醱": 5528,
    "醲": 5529,
    "醴": 5530,
    "醺": 5531,
    "醽": 5532,
    "醿": 5533,
    "釁": 5534,
    "釂": 5535,
    "采": 5536,
    "释": 5537,
    "釋": 5538,
    "里": 5539,
    "重": 5540,
    "野": 5541,
    "量": 5542,
    "釐": 5543,
    "金": 5544,
    "釘": 5545,
    "釜": 5546,
    "針": 5547,
    "釣": 5548,
    "釧": 5549,
    "釭": 5550,
    "釵": 5551,
    "鈆": 5552,
    "鈇": 5553,
    "鈒": 5554,
    "鈞": 5555,
    "鈴": 5556,
    "鈹": 5557,
    "鈿": 5558,
    "鉅": 5559,
    "鉏": 5560,
    "鉛": 5561,
    "鉞": 5562,
    "鉤": 5563,
    "鉦": 5564,
    "鉴": 5565,
    "鉶": 5566,
    "鉸": 5567,
    "銀": 5568,
    "銅": 5569,
    "銓": 5570,
    "銖": 5571,
    "銘": 5572,
    "銙": 5573,
    "銜": 5574,
    "銮": 5575,
    "銳": 5576,
    "銷": 5577,
    "鋋": 5578,
    "鋒": 5579,
    "鋩": 5580,
    "鋪": 5581,
    "鋸": 5582,
    "錄": 5583,
    "錐": 5584,
    "錡": 5585,
    "錢": 5586,
    "錦": 5587,
    "錫": 5588,
    "錯": 5589,
    "鍊": 5590,
    "鍠": 5591,
    "鍪": 5592,
    "鍮": 5593,
    "鍼": 5594,
    "鍾": 5595,
    "鎖": 5596,
    "鎚": 5597,
    "鎡": 5598,
    "鎬": 5599,
    "鎮": 5600,
    "鎰": 5601,
    "鏃": 5602,
    "鏑": 5603,
    "鏖": 5604,
    "鏗": 5605,
    "鏘": 5606,
    "鏚": 5607,
    "鏞": 5608,
    "鏡": 5609,
    "鏤": 5610,
    "鏦": 5611,
    "鏹": 5612,
    "鐃": 5613,
    "鐍": 5614,
    "鐘": 5615,
    "鐙": 5616,
    "鐫": 5617,
    "鐵": 5618,
    "鐸": 5619,
    "鐺": 5620,
    "鑄": 5621,
    "鑊": 5622,
    "鑑": 5623,
    "鑒": 5624,
    "鑠": 5625,
    "鑣": 5626,
    "鑪": 5627,
    "鑽": 5628,
    "鑾": 5629,
    "鑿": 5630,
    "针": 5631,
    "钉": 5632,
    "钏": 5633,
    "钓": 5634,
    "钗": 5635,
    "钝": 5636,
    "钟": 5637,
    "钦": 5638,
    "钧": 5639,
    "钩": 5640,
    "钱": 5641,
    "钲": 5642,
    "钳": 5643,
    "钵": 5644,
    "钺": 5645,
    "钿": 5646,
    "铁": 5647,
    "铃": 5648,
    "铄": 5649,
    "铅": 5650,
    "铎": 5651,
    "铗": 5652,
    "铛": 5653,
    "铜": 5654,
    "铢": 5655,
    "铮": 5656,
    "银": 5657,
    "铸": 5658,
    "铺": 5659,
    "铿": 5660,
    "销": 5661,
    "锁": 5662,
    "锄": 5663,
    "锋": 5664,
    "错": 5665,
    "锡": 5666,
    "锤": 5667,
    "锥": 5668,
    "锦": 5669,
    "锱": 5670,
    "锵": 5671,
    "锺": 5672,
    "镂": 5673,
    "镇": 5674,
    "镊": 5675,
    "镐": 5676,
    "镛": 5677,
    "镜": 5678,
    "镫": 5679,
    "镬": 5680,
    "镳": 5681,
    "長": 5682,
    "长": 5683,
    "門": 5684,
    "閃": 5685,
    "閈": 5686,
    "閉": 5687,
    "開": 5688,
    "閏": 5689,
    "閑": 5690,
    "閒": 5691,
    "間": 5692,
    "閔": 5693,
    "閟": 5694,
    "閣": 5695,
    "閤": 5696,
    "閨": 5697,
    "閫": 5698,
    "閬": 5699,
    "閭": 5700,
    "閱": 5701,
    "閶": 5702,
    "閹": 5703,
    "閻": 5704,
    "閼": 5705,
    "閽": 5706,
    "闇": 5707,
    "闈": 5708,
    "闊": 5709,
    "闋": 5710,
    "闌": 5711,
    "闐": 5712,
    "闒": 5713,
    "闓": 5714,
    "闔": 5715,
    "闕": 5716,
    "關": 5717,
    "闠": 5718,
    "闡": 5719,
    "闢": 5720,
    "闤": 5721,
    "闥": 5722,
    "门": 5723,
    "闪": 5724,
    "闭": 5725,
    "问": 5726,
    "闰": 5727,
    "闱": 5728,
    "闲": 5729,
    "间": 5730,
    "闵": 5731,
    "闷": 5732,
    "闹": 5733,
    "闺": 5734,
    "闻": 5735,
    "闼": 5736,
    "闽": 5737,
    "闾": 5738,
    "阁": 5739,
    "阃": 5740,
    "阄": 5741,
    "阅": 5742,
    "阆": 5743,
    "阊": 5744,
    "阎": 5745,
    "阑": 5746,
    "阒": 5747,
    "阔": 5748,
    "阕": 5749,
    "阖": 5750,
    "阗": 5751,
    "阙": 5752,
    "阜": 5753,
    "队": 5754,
    "阡": 5755,
    "阨": 5756,
    "阮": 5757,
    "阱": 5758,
    "防": 5759,
    "阳": 5760,
    "阴": 5761,
    "阵": 5762,
    "阶": 5763,
    "阻": 5764,
    "阿": 5765,
    "陀": 5766,
    "陂": 5767,
    "附": 5768,
    "际": 5769,
    "陆": 5770,
    "陇": 5771,
    "陈": 5772,
    "陋": 5773,
    "陌": 5774,
    "降": 5775,
    "限": 5776,
    "陘": 5777,
    "陛": 5778,
    "陝": 5779,
    "陟": 5780,
    "陡": 5781,
    "院": 5782,
    "陣": 5783,
    "除": 5784,
    "陨": 5785,
    "险": 5786,
    "陪": 5787,
    "陰": 5788,
    "陲": 5789,
    "陳": 5790,
    "陵": 5791,
    "陶": 5792,
    "陷": 5793,
    "陸": 5794,
    "陽": 5795,
    "隅": 5796,
    "隆": 5797,
    "隈": 5798,
    "隊": 5799,
    "隋": 5800,
    "階": 5801,
    "随": 5802,
    "隐": 5803,
    "隔": 5804,
    "隕": 5805,
    "隗": 5806,
    "隘": 5807,
    "隙": 5808,
    "際": 5809,
    "障": 5810,
    "隨": 5811,
    "險": 5812,
    "隮": 5813,
    "隰": 5814,
    "隱": 5815,
    "隳": 5816,
    "隴": 5817,
    "隸": 5818,
    "隻": 5819,
    "隼": 5820,
    "难": 5821,
    "雀": 5822,
    "雁": 5823,
    "雄": 5824,
    "雅": 5825,
    "集": 5826,
    "雉": 5827,
    "雌": 5828,
    "雍": 5829,
    "雏": 5830,
    "雒": 5831,
    "雕": 5832,
    "雖": 5833,
    "雙": 5834,
    "雛": 5835,
    "雜": 5836,
    "雝": 5837,
    "雞": 5838,
    "離": 5839,
    "難": 5840,
    "雨": 5841,
    "雩": 5842,
    "雪": 5843,
    "雰": 5844,
    "雲": 5845,
    "零": 5846,
    "雷": 5847,
    "雹": 5848,
    "電": 5849,
    "雾": 5850,
    "需": 5851,
    "霁": 5852,
    "霂": 5853,
    "霄": 5854,
    "霅": 5855,
    "霆": 5856,
    "震": 5857,
    "霈": 5858,
    "霍": 5859,
    "霎": 5860,
    "霏": 5861,
    "霑": 5862,
    "霓": 5863,
    "霖": 5864,
    "霙": 5865,
    "霜": 5866,
    "霞": 5867,
    "霢": 5868,
    "霧": 5869,
    "霭": 5870,
    "霰": 5871,
    "露": 5872,
    "霸": 5873,
    "霹": 5874,
    "霽": 5875,
    "霾": 5876,
    "霿": 5877,
    "靂": 5878,
    "靄": 5879,
    "靈": 5880,
    "青": 5881,
    "靓": 5882,
    "靖": 5883,
    "静": 5884,
    "靜": 5885,
    "非": 5886,
    "靠": 5887,
    "靡": 5888,
    "面": 5889,
    "靥": 5890,
    "靨": 5891,
    "革": 5892,
    "靳": 5893,
    "靴": 5894,
    "靶": 5895,
    "靸": 5896,
    "靺": 5897,
    "鞅": 5898,
    "鞋": 5899,
    "鞍": 5900,
    "鞏": 5901,
    "鞓": 5902,
    "鞘": 5903,
    "鞚": 5904,
    "鞞": 5905,
    "鞦": 5906,
    "鞨": 5907,
    "鞬": 5908,
    "鞭": 5909,
    "鞮": 5910,
    "鞯": 5911,
    "鞲": 5912,
    "鞴": 5913,
    "鞿": 5914,
    "韁": 5915,
    "韆": 5916,
    "韈": 5917,
    "韋": 5918,
    "韓": 5919,
    "韜": 5920,
    "韡": 5921,
    "韦": 5922,
    "韩": 5923,
    "韫": 5924,
    "音": 5925,
    "韵": 5926,
    "韶": 5927,
    "韻": 5928,
    "響": 5929,
    "頀": 5930,
    "頂": 5931,
    "頃": 5932,
    "項": 5933,
    "順": 5934,
    "須": 5935,
    "頌": 5936,
    "頎": 5937,
    "預": 5938,
    "頑": 5939,
    "頒": 5940,
    "頓": 5941,
    "頗": 5942,
    "領": 5943,
    "頞": 5944,
    "頤": 5945,
    "頭": 5946,
    "頰": 5947,
    "頴": 5948,
    "頷": 5949,
    "頸": 5950,
    "頹": 5951,
    "頻": 5952,
    "顆": 5953,
    "顇": 5954,
    "題": 5955,
    "額": 5956,
    "顏": 5957,
    "顒": 5958,
    "願": 5959,
    "顙": 5960,
    "顛": 5961,
    "類": 5962,
    "顣": 5963,
    "顦": 5964,
    "顧": 5965,
    "顯": 5966,
    "顰": 5967,
    "顶": 5968,
    "顷": 5969,
    "项": 5970,
    "顺": 5971,
    "须": 5972,
    "顽": 5973,
    "顾": 5974,
    "顿": 5975,
    "颁": 5976,
    "颂": 5977,
    "颃": 5978,
    "预": 5979,
    "领": 5980,
    "颇": 5981,
    "颈": 5982,
    "颉": 5983,
    "颊": 5984,
    "颍": 5985,
    "颐": 5986,
    "频": 5987,
    "颓": 5988,
    "颔": 5989,
    "颖": 5990,
    "颗": 5991,
    "题": 5992,
    "颜": 5993,
    "额": 5994,
    "颠": 5995,
    "颣": 5996,
    "颤": 5997,
    "颦": 5998,
    "風": 5999,
    "颭": 6000,
    "颯": 6001,
    "颸": 6002,
    "颺": 6003,
    "颻": 6004,
    "颼": 6005,
    "飀": 6006,
    "飄": 6007,
    "飆": 6008,
    "飉": 6009,
    "风": 6010,
    "飐": 6011,
    "飒": 6012,
    "飔": 6013,
    "飕": 6014,
    "飘": 6015,
    "飙": 6016,
    "飛": 6017,
    "飜": 6018,
    "飞": 6019,
    "食": 6020,
    "飡": 6021,
    "飢": 6022,
    "飦": 6023,
    "飧": 6024,
    "飫": 6025,
    "飭": 6026,
    "飯": 6027,
    "飲": 6028,
    "飶": 6029,
    "飼": 6030,
    "飽": 6031,
    "飾": 6032,
    "餂": 6033,
    "餉": 6034,
    "養": 6035,
    "餌": 6036,
    "餐": 6037,
    "餒": 6038,
    "餓": 6039,
    "餔": 6040,
    "餘": 6041,
    "餞": 6042,
    "餧": 6043,
    "館": 6044,
    "餱": 6045,
    "餴": 6046,
    "餵": 6047,
    "餽": 6048,
    "饋": 6049,
    "饌": 6050,
    "饎": 6051,
    "饑": 6052,
    "饒": 6053,
    "饔": 6054,
    "饗": 6055,
    "饜": 6056,
    "饤": 6057,
    "饥": 6058,
    "饧": 6059,
    "饭": 6060,
    "饮": 6061,
    "饰": 6062,
    "饱": 6063,
    "饵": 6064,
    "饶": 6065,
    "饷": 6066,
    "饼": 6067,
    "饾": 6068,
    "饿": 6069,
    "馀": 6070,
    "馆": 6071,
    "首": 6072,
    "香": 6073,
    "馥": 6074,
    "馨": 6075,
    "馬": 6076,
    "馭": 6077,
    "馮": 6078,
    "馱": 6079,
    "馳": 6080,
    "馴": 6081,
    "馹": 6082,
    "駄": 6083,
    "駐": 6084,
    "駑": 6085,
    "駒": 6086,
    "駕": 6087,
    "駖": 6088,
    "駘": 6089,
    "駛": 6090,
    "駝": 6091,
    "駞": 6092,
    "駟": 6093,
    "駢": 6094,
    "駭": 6095,
    "駿": 6096,
    "騁": 6097,
    "騂": 6098,
    "騄": 6099,
    "騅": 6100,
    "騎": 6101,
    "騏": 6102,
    "騕": 6103,
    "騞": 6104,
    "騣": 6105,
    "騧": 6106,
    "騫": 6107,
    "騮": 6108,
    "騰": 6109,
    "騶": 6110,
    "騷": 6111,
    "驁": 6112,
    "驂": 6113,
    "驃": 6114,
    "驄": 6115,
    "驅": 6116,
    "驊": 6117,
    "驎": 6118,
    "驏": 6119,
    "驔": 6120,
    "驕": 6121,
    "驗": 6122,
    "驚": 6123,
    "驛": 6124,
    "驟": 6125,
    "驤": 6126,
    "驥": 6127,
    "驩": 6128,
    "驪": 6129,
    "马": 6130,
    "驭": 6131,
    "驮": 6132,
    "驯": 6133,
    "驰": 6134,
    "驱": 6135,
    "驴": 6136,
    "驹": 6137,
    "驻": 6138,
    "驼": 6139,
    "驾": 6140,
    "驿": 6141,
    "骀": 6142,
    "骄": 6143,
    "骅": 6144,
    "骇": 6145,
    "骈": 6146,
    "骊": 6147,
    "骋": 6148,
    "验": 6149,
    "骎": 6150,
    "骏": 6151,
    "骑": 6152,
    "骓": 6153,
    "骖": 6154,
    "骚": 6155,
    "骛": 6156,
    "骝": 6157,
    "骢": 6158,
    "骤": 6159,
    "骧": 6160,
    "骨": 6161,
    "骰": 6162,
    "骸": 6163,
    "髀": 6164,
    "髓": 6165,
    "體": 6166,
    "高": 6167,
    "髡": 6168,
    "髣": 6169,
    "髦": 6170,
    "髫": 6171,
    "髭": 6172,
    "髮": 6173,
    "髯": 6174,
    "髴": 6175,
    "髻": 6176,
    "鬅": 6177,
    "鬆": 6178,
    "鬉": 6179,
    "鬒": 6180,
    "鬓": 6181,
    "鬖": 6182,
    "鬙": 6183,
    "鬚": 6184,
    "鬟": 6185,
    "鬢": 6186,
    "鬣": 6187,
    "鬥": 6188,
    "鬧": 6189,
    "鬨": 6190,
    "鬬": 6191,
    "鬯": 6192,
    "鬱": 6193,
    "鬲": 6194,
    "鬻": 6195,
    "鬼": 6196,
    "魁": 6197,
    "魂": 6198,
    "魄": 6199,
    "魅": 6200,
    "魈": 6201,
    "魏": 6202,
    "魑": 6203,
    "魔": 6204,
    "魚": 6205,
    "魫": 6206,
    "魯": 6207,
    "鮑": 6208,
    "鮫": 6209,
    "鮮": 6210,
    "鯀": 6211,
    "鯉": 6212,
    "鯢": 6213,
    "鯨": 6214,
    "鯫": 6215,
    "鰥": 6216,
    "鰭": 6217,
    "鱉": 6218,
    "鱏": 6219,
    "鱗": 6220,
    "鱣": 6221,
    "鱸": 6222,
    "鱼": 6223,
    "鲁": 6224,
    "鲇": 6225,
    "鲈": 6226,
    "鲙": 6227,
    "鲛": 6228,
    "鲜": 6229,
    "鲤": 6230,
    "鲥": 6231,
    "鲲": 6232,
    "鲸": 6233,
    "鳌": 6234,
    "鳏": 6235,
    "鳖": 6236,
    "鳜": 6237,
    "鳞": 6238,
    "鳥": 6239,
    "鳧": 6240,
    "鳩": 6241,
    "鳳": 6242,
    "鳴": 6243,
    "鳶": 6244,
    "鳷": 6245,
    "鳿": 6246,
    "鴂": 6247,
    "鴃": 6248,
    "鴈": 6249,
    "鴉": 6250,
    "鴒": 6251,
    "鴛": 6252,
    "鴞": 6253,
    "鴟": 6254,
    "鴦": 6255,
    "鴨": 6256,
    "鴻": 6257,
    "鵁": 6258,
    "鵊": 6259,
    "鵝": 6260,
    "鵠": 6261,
    "鵡": 6262,
    "鵬": 6263,
    "鵰": 6264,
    "鵲": 6265,
    "鵶": 6266,
    "鵷": 6267,
    "鵾": 6268,
    "鶃": 6269,
    "鶄": 6270,
    "鶒": 6271,
    "鶗": 6272,
    "鶚": 6273,
    "鶡": 6274,
    "鶤": 6275,
    "鶩": 6276,
    "鶬": 6277,
    "鶯": 6278,
    "鶱": 6279,
    "鶴": 6280,
    "鶺": 6281,
    "鶻": 6282,
    "鷀": 6283,
    "鷁": 6284,
    "鷃": 6285,
    "鷇": 6286,
    "鷖": 6287,
    "鷗": 6288,
    "鷙": 6289,
    "鷦": 6290,
    "鷫": 6291,
    "鷯": 6292,
    "鷲": 6293,
    "鷹": 6294,
    "鷺": 6295,
    "鸀": 6296,
    "鸂": 6297,
    "鸇": 6298,
    "鸎": 6299,
    "鸕": 6300,
    "鸘": 6301,
    "鸚": 6302,
    "鸝": 6303,
    "鸞": 6304,
    "鸟": 6305,
    "鸠": 6306,
    "鸡": 6307,
    "鸢": 6308,
    "鸣": 6309,
    "鸥": 6310,
    "鸦": 6311,
    "鸪": 6312,
    "鸬": 6313,
    "鸭": 6314,
    "鸯": 6315,
    "鸱": 6316,
    "鸳": 6317,
    "鸶": 6318,
    "鸽": 6319,
    "鸾": 6320,
    "鸿": 6321,
    "鹁": 6322,
    "鹂": 6323,
    "鹃": 6324,
    "鹄": 6325,
    "鹅": 6326,
    "鹇": 6327,
    "鹈": 6328,
    "鹉": 6329,
    "鹊": 6330,
    "鹏": 6331,
    "鹑": 6332,
    "鹓": 6333,
    "鹗": 6334,
    "鹚": 6335,
    "鹜": 6336,
    "鹢": 6337,
    "鹣": 6338,
    "鹤": 6339,
    "鹦": 6340,
    "鹧": 6341,
    "鹫": 6342,
    "鹭": 6343,
    "鹰": 6344,
    "鹳": 6345,
    "鹵": 6346,
    "鹽": 6347,
    "鹿": 6348,
    "麀": 6349,
    "麄": 6350,
    "麈": 6351,
    "麋": 6352,
    "麏": 6353,
    "麒": 6354,
    "麓": 6355,
    "麗": 6356,
    "麛": 6357,
    "麝": 6358,
    "麞": 6359,
    "麟": 6360,
    "麤": 6361,
    "麥": 6362,
    "麦": 6363,
    "麨": 6364,
    "麯": 6365,
    "麰": 6366,
    "麴": 6367,
    "麻": 6368,
    "麽": 6369,
    "麾": 6370,
    "黃": 6371,
    "黄": 6372,
    "黍": 6373,
    "黎": 6374,
    "黏": 6375,
    "黑": 6376,
    "黔": 6377,
    "默": 6378,
    "黛": 6379,
    "黜": 6380,
    "黝": 6381,
    "點": 6382,
    "黠": 6383,
    "黤": 6384,
    "黨": 6385,
    "黮": 6386,
    "黯": 6387,
    "黳": 6388,
    "黷": 6389,
    "黻": 6390,
    "黼": 6391,
    "黿": 6392,
    "鼃": 6393,
    "鼇": 6394,
    "鼈": 6395,
    "鼉": 6396,
    "鼍": 6397,
    "鼎": 6398,
    "鼐": 6399,
    "鼓": 6400,
    "鼕": 6401,
    "鼗": 6402,
    "鼙": 6403,
    "鼠": 6404,
    "鼷": 6405,
    "鼹": 6406,
    "鼻": 6407,
    "齊": 6408,
    "齋": 6409,
    "齐": 6410,
    "齑": 6411,
    "齒": 6412,
    "齕": 6413,
    "齡": 6414,
    "齧": 6415,
    "齿": 6416,
    "龄": 6417,
    "龍": 6418,
    "龔": 6419,
    "龙": 6420,
    "龜": 6421,
    "龟": 6422,
    "！": 6423,
    "，": 6424,
    "：": 6425,
    "；": 6426,
    "？": 6427,
    "�": 6428,
    "𡋯": 6429,
    "𡷸": 6430,
    "𡸣": 6431,
    "𣙙": 6432,
    "𥫗": 6433,
    "𥳇": 6434,
    "𦋺": 6435,
    "𧞔": 6436,
    "𧹁": 6437,
    "𧽼": 6438,
    "𨣧": 6439,
    "𩅰": 6440,
    "𩩉": 6441,
    "𪒶": 6442,
    "曰：": 6443,
    "曰：「": 6444,
    "也。": 6445,
    "，不": 6446,
    "也，": 6447,
    "者，": 6448,
    "孟子": 6449,
    "？」": 6450,
    "，一": 6451,
    "。」": 6452,
    "，則": 6453,
    "去。": 6454,
    "人，": 6455,
    "天下": 6456,
    "人。": 6457,
    "之，": 6458,
    "处。": 6459,
    "孟子曰：「": 6460,
    "曰：『": 6461,
    "相思": 6462,
    "处，": 6463,
    "也；": 6464,
    "，何": 6465,
    "月，": 6466,
    "里，": 6467,
    "雨。": 6468,
    "也。」": 6469,
    "去，": 6470,
    "事，": 6471,
    "时。": 6472,
    "春。": 6473,
    "中。": 6474,
    "香。": 6475,
    "子，": 6476,
    "而不": 6477,
    "江南": 6478,
    "上，": 6479,
    "路。": 6480,
    "千里": 6481,
    "情。": 6482,
    "矣。": 6483,
    "道，": 6484,
    "天。": 6485,
    "水，": 6486,
    "东风": 6487,
    "不可": 6488,
    "君子": 6489,
    "明月": 6490,
    "，玉": 6491,
    "老。": 6492,
    "衣。": 6493,
    "，天": 6494,
    "，人": 6495,
    "不知": 6496,
    "日，": 6497,
    "相逢": 6498,
    "光。": 6499,
    "明。": 6500,
    "之。": 6501,
    "年。": 6502,
    "风流": 6503,
    "语。": 6504,
    "春风": 6505,
    "归来": 6506,
    "行。": 6507,
    "水。": 6508,
    "人之": 6509,
    "，花": 6510,
    "，金": 6511,
    "年年": 6512,
    "空。": 6513,
    "下，": 6514,
    "尊前": 6515,
    "愁。": 6516,
    "。』": 6517,
    "德，": 6518,
    "花，": 6519,
    "，有": 6520,
    "意。": 6521,
    "少年": 6522,
    "芳草": 6523,
    "，更": 6524,
    "心。": 6525,
    "生。": 6526,
    "暮。": 6527,
    "，無": 6528,
    "里。": 6529,
    "山。": 6530,
    "醉。": 6531,
    "色，": 6532,
    "月。": 6533,
    "不得": 6534,
    "，今": 6535,
    "同。": 6536,
    "何处": 6537,
    "不見": 6538,
    "好。": 6539,
    "多少": 6540,
    "人间": 6541,
    "住。": 6542,
    "，是": 6543,
    "心，": 6544,
    "，又": 6545,
    "起。": 6546,
    "秋。": 6547,
    "远。": 6548,
    "飞。": 6549,
    "新。": 6550,
    "风。": 6551,
    "枝。": 6552,
    "家。": 6553,
    "红。": 6554,
    "可以": 6555,
    "，莫": 6556,
    "道。": 6557,
    "知。": 6558,
    "，月": 6559,
    "花。": 6560,
    "期。": 6561,
    "，春": 6562,
    "多情": 6563,
    "回首": 6564,
    "成。": 6565,
    "，无": 6566,
    "晚。": 6567,
    "归。": 6568,
    "□□": 6569,
    "寒。": 6570,
    "时，": 6571,
    "落花": 6572,
    "地，": 6573,
    "酒，": 6574,
    "断。": 6575,
    "流。": 6576,
    "，三": 6577,
    "地。": 6578,
    "酒。": 6579,
    "，空": 6580,
    "佳人": 6581,
    "，千": 6582,
    "来。": 6583,
    "长。": 6584,
    "路，": 6585,
    "不能": 6586,
    "在，": 6587,
    "色。": 6588,
    "今日": 6589,
    "風。": 6590,
    "天涯": 6591,
    "回。": 6592,
    "，自": 6593,
    "孔子": 6594,
    "，萬": 6595,
    "平。": 6596,
    "，未": 6597,
    "城。": 6598,
    "聲。": 6599,
    "黄昏": 6600,
    "见。": 6601,
    "，長": 6602,
    "，日": 6603,
    "看。": 6604,
    "阑干": 6605,
    "所以": 6606,
    "，相": 6607,
    "如今": 6608,
    "深。": 6609,
    "，此": 6610,
    "小。": 6611,
    "清。": 6612,
    "人生": 6613,
    "雪。": 6614,
    "，而": 6615,
    "，以": 6616,
    "昨夜": 6617,
    "芙蓉": 6618,
    "，行": 6619,
    "雨，": 6620,
    "楼。": 6621,
    "景，": 6622,
    "乎？」": 6623,
    "面。": 6624,
    "依旧": 6625,
    "起，": 6626,
    "归去": 6627,
    "少。": 6628,
    "歸。": 6629,
    "笙歌": 6630,
    "曲，": 6631,
    "憔悴": 6632,
    "开。": 6633,
    "意，": 6634,
    "，风": 6635,
    "，清": 6636,
    "諸侯": 6637,
    "，小": 6638,
    "，水": 6639,
    "客。": 6640,
    "桃李": 6641,
    "不见": 6642,
    "重。": 6643,
    "浅。": 6644,
    "，百": 6645,
    "今夜": 6646,
    "思量": 6647,
    "晓。": 6648,
    "然。": 6649,
    "声。": 6650,
    "时节": 6651,
    "笑。": 6652,
    "天气": 6653,
    "《詩": 6654,
    "后，": 6655,
    "草。": 6656,
    "去年": 6657,
    "《詩》": 6658,
    "，我": 6659,
    "无限": 6660,
    "云。": 6661,
    "何处。": 6662,
    "哉？": 6663,
    "山，": 6664,
    "十二": 6665,
    "头。": 6666,
    "影。": 6667,
    "行人": 6668,
    "，香": 6669,
    "而已": 6670,
    "天子": 6671,
    "来，": 6672,
    "芳菲": 6673,
    "天下之": 6674,
    "，白": 6675,
    "，明": 6676,
    "远，": 6677,
    "碧。": 6678,
    "无人": 6679,
    "天，": 6680,
    "神。": 6681,
    "迟。": 6682,
    "后。": 6683,
    "酒醒": 6684,
    "当时": 6685,
    "厌厌": 6686,
    "一曲": 6687,
    "多。": 6688,
    "名。": 6689,
    "乎？": 6690,
    "，如": 6691,
    "老，": 6692,
    "以為": 6693,
    "時。": 6694,
    "神仙": 6695,
    "春色": 6696,
    "杨柳": 6697,
    "寂寞": 6698,
    "，其": 6699,
    "，風": 6700,
    "信。": 6701,
    "故人": 6702,
    "早。": 6703,
    "，寒": 6704,
    "容易": 6705,
    "鸳鸯": 6706,
    "前。": 6707,
    "断肠": 6708,
    "焉。": 6709,
    "流水": 6710,
    "发。": 6711,
    "树。": 6712,
    "迢迢": 6713,
    "波。": 6714,
    "功。": 6715,
    "萬里": 6716,
    "不足": 6717,
    "，非": 6718,
    "息。": 6719,
    "西。": 6720,
    "好，": 6721,
    "通。": 6722,
    "桃花": 6723,
    "为谁": 6724,
    "悠悠": 6725,
    "惟有": 6726,
    "，谁": 6727,
    "美人": 6728,
    "君王": 6729,
    "長。": 6730,
    "矣。」": 6731,
    "子之": 6732,
    "泪。": 6733,
    "弦。": 6734,
    "黃金": 6735,
    "父母": 6736,
    "平生": 6737,
    "几时": 6738,
    "翠。": 6739,
    "恨，": 6740,
    "垂杨": 6741,
    "遍。": 6742,
    "暖。": 6743,
    "满。": 6744,
    "尽，": 6745,
    "凉。": 6746,
    "州。": 6747,
    "使君": 6748,
    "也？」": 6749,
    "度。": 6750,
    "不如": 6751,
    "中，": 6752,
    "落，": 6753,
    "，高": 6754,
    "曲。": 6755,
    "乱。": 6756,
    "江上": 6757,
    "一夜": 6758,
    "了。": 6759,
    "恨。": 6760,
    "晚，": 6761,
    "西风": 6762,
    "子曰：「": 6763,
    "君不見": 6764,
    "其所": 6765,
    "何事": 6766,
    "年，": 6767,
    "容。": 6768,
    "游。": 6769,
    "梅花": 6770,
    "绪。": 6771,
    "尽。": 6772,
    "歌舞": 6773,
    "杯。": 6774,
    "矣，": 6775,
    "之於": 6776,
    "之所": 6777,
    "四海": 6778,
    "，欲": 6779,
    "珠帘": 6780,
    "庭院": 6781,
    "分明": 6782,
    "斜阳": 6783,
    "，神": 6784,
    "霜。": 6785,
    "客，": 6786,
    "散。": 6787,
    "，心": 6788,
    "，秋": 6789,
    "女，": 6790,
    "手。": 6791,
    "近。": 6792,
    "宴。": 6793,
    "数。": 6794,
    "眉。": 6795,
    "柳。": 6796,
    "匆匆": 6797,
    "殷勤": 6798,
    "月明": 6799,
    "雪，": 6800,
    "而後": 6801,
    "來。": 6802,
    "王之": 6803,
    "子。": 6804,
    "人不": 6805,
    "行，": 6806,
    "天地": 6807,
    "禮，": 6808,
    "定。": 6809,
    "画堂": 6810,
    "醉，": 6811,
    "千金": 6812,
    "盈盈": 6813,
    "芳。": 6814,
    "，愁": 6815,
    "草，": 6816,
    "歌。": 6817,
    "來，": 6818,
    "時，": 6819,
    "怨。": 6820,
    "笑，": 6821,
    "别来": 6822,
    "半。": 6823,
    "苦。": 6824,
    "问。": 6825,
    "飛。": 6826,
    "問曰：「": 6827,
    "归去。": 6828,
    "不似": 6829,
    "宮。": 6830,
    "如此": 6831,
    "自有": 6832,
    "有人": 6833,
    "情，": 6834,
    "望，": 6835,
    "將軍": 6836,
    "味。": 6837,
    "细。": 6838,
    "，长": 6839,
    "，山": 6840,
    "影，": 6841,
    "许。": 6842,
    "《詩》云": 6843,
    "之謂": 6844,
    "身。": 6845,
    "思，": 6846,
    "得。": 6847,
    "，云": 6848,
    "沈沈": 6849,
    "别。": 6850,
    "间。": 6851,
    "仙。": 6852,
    "绝。": 6853,
    "一枝": 6854,
    "琵琶": 6855,
    "那堪": 6856,
    "长安": 6857,
    "当年": 6858,
    "落。": 6859,
    "肠断": 6860,
    "留。": 6861,
    "台。": 6862,
    "也。』": 6863,
    "，故": 6864,
    "不相": 6865,
    "士，": 6866,
    "燕。": 6867,
    "，禮": 6868,
    "，望": 6869,
    "如何": 6870,
    "夜，": 6871,
    "绿。": 6872,
    "记得": 6873,
    "瘦。": 6874,
    "稀。": 6875,
    "，青": 6876,
    "妆。": 6877,
    "花前": 6878,
    "塵。": 6879,
    "春風": 6880,
    "，五": 6881,
    "否。": 6882,
    "，大": 6883,
    "上。": 6884,
    "不成": 6885,
    "，尽": 6886,
    "舟。": 6887,
    "，只": 6888,
    "，新": 6889,
    "浓。": 6890,
    "夕阳": 6891,
    "，红": 6892,
    "低。": 6893,
    "相思。": 6894,
    "《詩》云：": 6895,
    "焉，": 6896,
    "然後": 6897,
    "微。": 6898,
    "，夜": 6899,
    "魂。": 6900,
    "睡。": 6901,
    "露。": 6902,
    "垂。": 6903,
    "往事": 6904,
    "闲。": 6905,
    "过。": 6906,
    "而今": 6907,
    "悲。": 6908,
    "者也。": 6909,
    "，樂": 6910,
    "，流": 6911,
    "休。": 6912,
    "散，": 6913,
    "思。": 6914,
    "歇。": 6915,
    "卷。": 6916,
    "玉。": 6917,
    "船。": 6918,
    "到。": 6919,
    "相见": 6920,
    "东。": 6921,
    "飞絮": 6922,
    "袖。": 6923,
    "，永": 6924,
    "分。": 6925,
    "與？」": 6926,
    "也？": 6927,
    "國，": 6928,
    "下。": 6929,
    "我，": 6930,
    "，似": 6931,
    "何人": 6932,
    "，方": 6933,
    "久。": 6934,
    "愁，": 6935,
    "西湖": 6936,
    "醒。": 6937,
    "里、": 6938,
    "别后": 6939,
    "户。": 6940,
    "圆。": 6941,
    "燕子": 6942,
    "人在": 6943,
    "事。": 6944,
    "外，": 6945,
    "遠，": 6946,
    "年少": 6947,
    "，便": 6948,
    "池塘": 6949,
    "帘幕": 6950,
    "眼。": 6951,
    "君恩": 6952,
    "香，": 6953,
    "时候": 6954,
    "何时": 6955,
    "翠，": 6956,
    "徘徊": 6957,
    "惆怅": 6958,
    "春，": 6959,
    "斜。": 6960,
    "長安": 6961,
    "盡，": 6962,
    "樂，": 6963,
    "足以": 6964,
    "不用": 6965,
    "，朝": 6966,
    "十里": 6967,
    "謂之": 6968,
    "深，": 6969,
    "十年": 6970,
    "聚。": 6971,
    "春来": 6972,
    "，绿": 6973,
    "分付": 6974,
    "静。": 6975,
    "，向": 6976,
    "花枝": 6977,
    "烟。": 6978,
    "尘。": 6979,
    "了，": 6980,
    "明朝": 6981,
    "啼。": 6982,
    "今朝": 6983,
    "陽。": 6984,
    "何處": 6985,
    "王。": 6986,
    "古之": 6987,
    "短。": 6988,
    "君。": 6989,
    "，正": 6990,
    "，共": 6991,
    "重，": 6992,
    "照。": 6993,
    "岸。": 6994,
    "天上": 6995,
    "说。": 6996,
    "万里": 6997,
    "黄花": 6998,
    "，醉": 6999,
    "缕。": 7000,
    "年华": 7001,
    "风月": 7002,
    "一点": 7003,
    "把酒": 7004,
    "梨花": 7005,
    "收。": 7006,
    "黄金": 7007,
    "梅。": 7008,
    "梦。": 7009,
    "開。": 7010,
    "千里。": 7011,
    "曰『": 7012,
    "，惟": 7013,
    "是故": 7014,
    "之；": 7015,
    "至，": 7016,
    "和。": 7017,
    "，上": 7018,
    "日。": 7019,
    "不堪": 7020,
    "主。": 7021,
    "倒。": 7022,
    "折。": 7023,
    "风光": 7024,
    "赢得": 7025,
    "歌，": 7026,
    "光阴": 7027,
    "深院": 7028,
    "秋千": 7029,
    "侣。": 7030,
    "清明": 7031,
    "夜来": 7032,
    "，梦": 7033,
    "携手": 7034,
    "霞。": 7035,
    "伊。": 7036,
    "残。": 7037,
    "还是": 7038,
    "十分": 7039,
    "来时": 7040,
    "有情": 7041,
    "穷。": 7042,
    "，飛": 7043,
    "樹，": 7044,
    "时节。": 7045,
    "大夫": 7046,
    "寒，": 7047,
    "方。": 7048,
    "死。": 7049,
    "朱颜": 7050,
    "风吹": 7051,
    "不须": 7052,
    "、一": 7053,
    "，但": 7054,
    "襟。": 7055,
    "别离": 7056,
    "，胡": 7057,
    "还。": 7058,
    "海棠": 7059,
    "矣；": 7060,
    "民，": 7061,
    "人有": 7062,
    "三月": 7063,
    "音。": 7064,
    "衣，": 7065,
    "亭。": 7066,
    "柳，": 7067,
    "转。": 7068,
    "，看": 7069,
    "，满": 7070,
    "东君": 7071,
    "无计": 7072,
    "语，": 7073,
    "媚。": 7074,
    "，翠": 7075,
    "，却": 7076,
    "深深": 7077,
    "一笑": 7078,
    "茫茫": 7079,
    "佳期": 7080,
    "薄。": 7081,
    "梧桐": 7082,
    "透。": 7083,
    "胭脂": 7084,
    "皱。": 7085,
    "白日": 7086,
    "雲。": 7087,
    "无数。": 7088,
    "多，": 7089,
    "之以": 7090,
    "馬，": 7091,
    "，且": 7092,
    "乎！": 7093,
    "，猶": 7094,
    "有。": 7095,
    "命，": 7096,
    "前，": 7097,
    "素。": 7098,
    "在。": 7099,
    "南山": 7100,
    "，重": 7101,
    "良辰": 7102,
    "楼台": 7103,
    "楼上": 7104,
    "风雨": 7105,
    "花开": 7106,
    "碧云": 7107,
    "无情": 7108,
    "此情": 7109,
    "中有": 7110,
    "，孤": 7111,
    "当初": 7112,
    "，几": 7113,
    "凄凉": 7114,
    "白。": 7115,
    "梦，": 7116,
    "黄。": 7117,
    "參差": 7118,
    "紅。": 7119,
    "王曰：「": 7120,
    "之道": 7121,
    "不敢": 7122,
    "臣。": 7123,
    "泉。": 7124,
    "池。": 7125,
    "隐隐": 7126,
    "不是": 7127,
    "尽日": 7128,
    "真。": 7129,
    "夜夜": 7130,
    "落日": 7131,
    "依前": 7132,
    "无言": 7133,
    "暖，": 7134,
    "处、": 7135,
    "红粉": 7136,
    "扁舟": 7137,
    "登临": 7138,
    "结。": 7139,
    "阑。": 7140,
    "肠。": 7141,
    "冷。": 7142,
    "杨花": 7143,
    "蛾眉": 7144,
    "可怜": 7145,
    "頭。": 7146,
    "仁義": 7147,
    "何以": 7148,
    "文王": 7149,
    "出，": 7150,
    "不忍": 7151,
    "海，": 7152,
    "不仁": 7153,
    "畔。": 7154,
    "一朝": 7155,
    "，江": 7156,
    "人人": 7157,
    "此时": 7158,
    "杳杳": 7159,
    "，歌": 7160,
    "杏花": 7161,
    "日暮": 7162,
    "一声": 7163,
    "青。": 7164,
    "可惜": 7165,
    "浦。": 7166,
    "自古": 7167,
    "红日": 7168,
    "管。": 7169,
    "洲。": 7170,
    "独自": 7171,
    "顾。": 7172,
    "举。": 7173,
    "清歌": 7174,
    "行云": 7175,
    "目断": 7176,
    "远山": 7177,
    "画楼": 7178,
    "千万": 7179,
    "寒食": 7180,
    "單于": 7181,
    "風吹": 7182,
    "相逢。": 7183,
    "，必": 7184,
    "不為": 7185,
    "七十": 7186,
    "死，": 7187,
    "信，": 7188,
    "與？": 7189,
    "夫子": 7190,
    "足。": 7191,
    "出。": 7192,
    "氣，": 7193,
    "窮。": 7194,
    "堯舜": 7195,
    "丈夫": 7196,
    "，終": 7197,
    "消。": 7198,
    "外。": 7199,
    "節，": 7200,
    "王孙": 7201,
    "花落": 7202,
    "南北": 7203,
    "金尊": 7204,
    "等闲": 7205,
    "，犹": 7206,
    "倚。": 7207,
    "空，": 7208,
    "，争": 7209,
    "功名": 7210,
    "舞。": 7211,
    "萧萧": 7212,
    "阴。": 7213,
    "，酒": 7214,
    "世间": 7215,
    "娟。": 7216,
    "沙。": 7217,
    "动。": 7218,
    "今年": 7219,
    "清香": 7220,
    "难。": 7221,
    "酒阑": 7222,
    "疑是": 7223,
    "裏，": 7224,
    "漢家": 7225,
    "可憐": 7226,
    "路難": 7227,
    "之。」": 7228,
    "千里，": 7229,
    "芳草。": 7230,
    "多少。": 7231,
    "消息。": 7232,
    "其君": 7233,
    "之不": 7234,
    "是，": 7235,
    "然則": 7236,
    "聲，": 7237,
    "苦，": 7238,
    "人皆": 7239,
    "燕，": 7240,
    "，柳": 7241,
    "明日": 7242,
    "無人": 7243,
    "忘。": 7244,
    "近，": 7245,
    "一杯": 7246,
    "悄悄": 7247,
    "日日": 7248,
    "清风": 7249,
    "梦魂": 7250,
    "青山": 7251,
    "迎。": 7252,
    "只恐": 7253,
    "白发": 7254,
    "深处": 7255,
    "一片": 7256,
    "重阳": 7257,
    "凭谁": 7258,
    "永，": 7259,
    "帘栊": 7260,
    "灯火": 7261,
    "欢。": 7262,
    "特地": 7263,
    "相看": 7264,
    "今宵": 7265,
    "真个": 7266,
    "江山": 7267,
    "说与": 7268,
    "手，": 7269,
    "秋风": 7270,
    "眠。": 7271,
    "文章": 7272,
    "从来": 7273,
    "无奈": 7274,
    "英。": 7275,
    "裳。": 7276,
    "極，": 7277,
    "，靈": 7278,
    "，還": 7279,
    "陳。": 7280,
    "臺。": 7281,
    "誰家": 7282,
    "楊柳": 7283,
    "，不如": 7284,
    "何处，": 7285,
    "為不": 7286,
    "未有": 7287,
    "，豈": 7288,
    "，深": 7289,
    "兄弟": 7290,
    "？』": 7291,
    "生，": 7292,
    "為之": 7293,
    "，從": 7294,
    "三年": 7295,
    "明，": 7296,
    "樓。": 7297,
    "，半": 7298,
    "，九": 7299,
    "阳关": 7300,
    "绿杨": 7301,
    "芳心": 7302,
    "望。": 7303,
    "依约": 7304,
    "千古": 7305,
    "扇。": 7306,
    "力。": 7307,
    "岁。": 7308,
    "只有": 7309,
    "新声": 7310,
    "枝上": 7311,
    "无端": 7312,
    "絮。": 7313,
    "雨过": 7314,
    "昼。": 7315,
    "恼。": 7316,
    "怎生": 7317,
    "际。": 7318,
    "暮雨": 7319,
    "歌声": 7320,
    "门。": 7321,
    "薄幸": 7322,
    "筵。": 7323,
    "音信": 7324,
    "昨日": 7325,
    "轻。": 7326,
    "高楼": 7327,
    "困。": 7328,
    "无。": 7329,
    "林。": 7330,
    "催。": 7331,
    "征人": 7332,
    "誠。": 7333,
    "风流。": 7334,
    "憔悴。": 7335,
    "思量。": 7336,
    "《詩》云：『": 7337,
    "者。": 7338,
    "止，": 7339,
    "何如": 7340,
    "，東": 7341,
    "家，": 7342,
    "，君": 7343,
    "富貴": 7344,
    "教人": 7345,
    "破。": 7346,
    "物，": 7347,
    "高，": 7348,
    "面，": 7349,
    "，万": 7350,
    "缥缈": 7351,
    "依依": 7352,
    "斜日": 7353,
    "竹。": 7354,
    "相对": 7355,
    "，暗": 7356,
    "眼，": 7357,
    "惜。": 7358,
    "月华": 7359,
    "第一": 7360,
    "，倚": 7361,
    "暮云": 7362,
    "谁与": 7363,
    "坐。": 7364,
    "忆。": 7365,
    "消息": 7366,
    "琉璃": 7367,
    "秀。": 7368,
    "吟。": 7369,
    "，雪": 7370,
    "荷花": 7371,
    "至今": 7372,
    "坠。": 7373,
    "春光": 7374,
    "雁。": 7375,
    "就。": 7376,
    "煙。": 7377,
    "，黃": 7378,
    "肅肅": 7379,
    "間。": 7380,
    "對曰：「": 7381,
    "明月，": 7382,
    "依旧。": 7383,
    "匆匆。": 7384,
    "至於": 7385,
    "我。": 7386,
    "今之": 7387,
    "昔者": 7388,
    "三十": 7389,
    "久，": 7390,
    "有所": 7391,
    "十五": 7392,
    "處，": 7393,
    "萬章": 7394,
    "庭。": 7395,
    "公。": 7396,
    "三千": 7397,
    "合，": 7398,
    "土。": 7399,
    "蓬莱": 7400,
    "，飞": 7401,
    "纷纷": 7402,
    "朱弦": 7403,
    "，烟": 7404,
    "镜。": 7405,
    "须信": 7406,
    "离愁": 7407,
    "是、": 7408,
    "，渐": 7409,
    "，轻": 7410,
    "寄。": 7411,
    "月下": 7412,
    "朦胧": 7413,
    "几度": 7414,
    "儿。": 7415,
    "乡。": 7416,
    "华。": 7417,
    "无处": 7418,
    "与谁": 7419,
    "翁。": 7420,
    "万事": 7421,
    "窈窕": 7422,
    "青楼": 7423,
    "一年": 7424,
    "诗。": 7425,
    "辰。": 7426,
    "迷。": 7427,
    "斷，": 7428,
    "鳴。": 7429,
    "關山": 7430,
    "爲君": 7431,
    "風，": 7432,
    "還。": 7433,
    "歸來": 7434,
    "鴛鴦": 7435,
    "归去，": 7436,
    "，亦": 7437,
    "，於": 7438,
    "之何": 7439,
    "見，": 7440,
    "枝，": 7441,
    "玉，": 7442,
    "，知": 7443,
    "百年": 7444,
    "千萬": 7445,
    "言，": 7446,
    "草木": 7447,
    "至。": 7448,
    "二月": 7449,
    "夜。": 7450,
    "鄉。": 7451,
    "咽。": 7452,
    "青青": 7453,
    "烟波": 7454,
    "主人": 7455,
    "枝头": 7456,
    "妍。": 7457,
    "未央": 7458,
    "丹青": 7459,
    "别有": 7460,
    "绣帘": 7461,
    "，露": 7462,
    "云，": 7463,
    "风细": 7464,
    "切。": 7465,
    "日高": 7466,
    "双燕": 7467,
    "脉脉": 7468,
    "裙。": 7469,
    "明珠": 7470,
    "寻。": 7471,
    "女。": 7472,
    "罗衣": 7473,
    "才。": 7474,
    "西楼": 7475,
    "看取": 7476,
    "川。": 7477,
    "離別": 7478,
    "之也。": 7479,
    "哉？」": 7480,
    "春风。": 7481,
    "不住。": 7482,
    "孔子曰：『": 7483,
    "而已矣。": 7484,
    "與之": 7485,
    "是何": 7486,
    "！」": 7487,
    "，為": 7488,
    "已。": 7489,
    "言。": 7490,
    "知其": 7491,
    "玉人": 7492,
    "，曾": 7493,
    "周公": 7494,
    "是。": 7495,
    "，中": 7496,
    "、不": 7497,
    "日月": 7498,
    "，下": 7499,
    "，四": 7500,
    "非。": 7501,
    "，雨": 7502,
    "，和": 7503,
    "疆。": 7504,
    "，休": 7505,
    "凭阑": 7506,
    "扫。": 7507,
    "参差": 7508,
    "尊。": 7509,
    "归，": 7510,
    "犹未": 7511,
    "雾。": 7512,
    "隔。": 7513,
    "，恨": 7514,
    "长，": 7515,
    "，都": 7516,
    "风，": 7517,
    "闲愁": 7518,
    "离恨": 7519,
    "三五": 7520,
    "迹。": 7521,
    "伴。": 7522,
    "一番": 7523,
    "冷，": 7524,
    "眉黛": 7525,
    "露，": 7526,
    "横。": 7527,
    "金。": 7528,
    "青春": 7529,
    "，舞": 7530,
    "何。": 7531,
    "兵。": 7532,
    "著。": 7533,
    "梁。": 7534,
    "狂。": 7535,
    "茱萸": 7536,
    "安得": 7537,
    "吹。": 7538,
    "巫山": 7539,
    "芗林": 7540,
    "遲。": 7541,
    "秋風": 7542,
    "浮雲": 7543,
    "別離": 7544,
    "，何处": 7545,
    "天涯。": 7546,
    "黄昏。": 7547,
    "无穷。": 7548,
    "國之": 7549,
    "，吾": 7550,
    "歸，": 7551,
    "，多": 7552,
    "門。": 7553,
    "章。": 7554,
    "先生": 7555,
    "天然": 7556,
    "，尚": 7557,
    "聞。": 7558,
    "湖上": 7559,
    "岁岁": 7560,
    "梦中": 7561,
    "暗香": 7562,
    "腰肢": 7563,
    "醉乡": 7564,
    "独倚": 7565,
    "计。": 7566,
    "，两": 7567,
    "此际": 7568,
    "寻常": 7569,
    "终日": 7570,
    "昌。": 7571,
    "长相": 7572,
    "卷，": 7573,
    "南陌": 7574,
    "旧。": 7575,
    "，画": 7576,
    "断，": 7577,
    "个。": 7578,
    "旧时": 7579,
    "步。": 7580,
    "从此": 7581,
    "乾坤": 7582,
    "夕。": 7583,
    "遥山": 7584,
    "几回": 7585,
    "云雨": 7586,
    "今古": 7587,
    "疏雨": 7588,
    "向人": 7589,
    "富贵": 7590,
    "漠漠": 7591,
    "晴。": 7592,
    "陌上": 7593,
    "游丝": 7594,
    "边。": 7595,
    "觉来": 7596,
    "津。": 7597,
    "送。": 7598,
    "红杏": 7599,
    "门外": 7600,
    "泥。": 7601,
    "星。": 7602,
    "纤纤": 7603,
    "千年": 7604,
    "风雨。": 7605,
    "天气。": 7606,
    "，然後": 7607,
    "婵娟。": 7608,
    "賢者": 7609,
    "少，": 7610,
    "輕。": 7611,
    "於此": 7612,
    "非其": 7613,
    "，好": 7614,
    "堂。": 7615,
    "於其": 7616,
    "君之": 7617,
    "子、": 7618,
    "，得": 7619,
    "朝。": 7620,
    "聖人": 7621,
    "我、": 7622,
    "伊尹": 7623,
    "公之": 7624,
    "人心": 7625,
    "親。": 7626,
    "，同": 7627,
    "不及": 7628,
    "比。": 7629,
    "備，": 7630,
    "宴，": 7631,
    "不信": 7632,
    "高唐": 7633,
    "回，": 7634,
    "祀，": 7635,
    "，霜": 7636,
    "，垂": 7637,
    "丽。": 7638,
    "人、": 7639,
    "春水": 7640,
    "宿。": 7641,
    "临水": 7642,
    "景。": 7643,
    "盈。": 7644,
    "长亭": 7645,
    "迢递": 7646,
    "小院": 7647,
    "绿阴": 7648,
    "席。": 7649,
    "冷落": 7650,
    "玉楼": 7651,
    "罗绮": 7652,
    "病。": 7653,
    "诉。": 7654,
    "鸿。": 7655,
    "洞房": 7656,
    "太平": 7657,
    "抱。": 7658,
    "天与": 7659,
    "妒。": 7660,
    "调。": 7661,
    "秋水": 7662,
    "，旧": 7663,
    "前欢": 7664,
    "须知": 7665,
    "，初": 7666,
    "云鬟": 7667,
    "何妨": 7668,
    "，六": 7669,
    "泪，": 7670,
    "关。": 7671,
    "寿。": 7672,
    "帘外": 7673,
    "对酒": 7674,
    "月上": 7675,
    "枕，": 7676,
    "，乘": 7677,
    "谁家": 7678,
    "浮生": 7679,
    "与君": 7680,
    "，独": 7681,
    "魂梦": 7682,
    "重重": 7683,
    "，到": 7684,
    "心情": 7685,
    "郎。": 7686,
    "晚来": 7687,
    "谁能": 7688,
    "何似": 7689,
    "传。": 7690,
    "寂寂": 7691,
    "□。": 7692,
    "旌旗": 7693,
    "屋。": 7694,
    "想见": 7695,
    "，含": 7696,
    "河。": 7697,
    "洛陽": 7698,
    "輝。": 7699,
    "，龍": 7700,
    "裏。": 7701,
    "宛轉": 7702,
    "，不可": 7703,
    "之，則": 7704,
    "君子之": 7705,
    "而已矣。」": 7706,
    "，庶": 7707,
    "民之": 7708,
    "之有": 7709,
    "人者": 7710,
    "，因": 7711,
    "國。": 7712,
    "天之": 7713,
    "走馬": 7714,
    "取。": 7715,
    "，去": 7716,
    "不以": 7717,
    "公孫": 7718,
    "何曾": 7719,
    "敢問": 7720,
    "喜。": 7721,
    "使人": 7722,
    "相似": 7723,
    "，德": 7724,
    "，道": 7725,
    "門，": 7726,
    "見。": 7727,
    "思君": 7728,
    "世。": 7729,
    "首。": 7730,
    "零落": 7731,
    "又是": 7732,
    "情怀": 7733,
    "，已": 7734,
    "翩翩": 7735,
    "卮。": 7736,
    "樱桃": 7737,
    "蕊。": 7738,
    "帝城": 7739,
    "园林": 7740,
    "，幽": 7741,
    "得、": 7742,
    "梦回": 7743,
    "繁华": 7744,
    "欢娱": 7745,
    "永。": 7746,
    "软。": 7747,
    "会，": 7748,
    "霓裳": 7749,
    "春睡": 7750,
    "纤手": 7751,
    "管弦": 7752,
    "鼓。": 7753,
    "画。": 7754,
    "游，": 7755,
    "底。": 7756,
    "，应": 7757,
    "此去": 7758,
    "如花": 7759,
    "凌波": 7760,
    "浪。": 7761,
    "气。": 7762,
    "年时": 7763,
    "，那": 7764,
    "古今": 7765,
    "一去": 7766,
    "眼前": 7767,
    "风露": 7768,
    "试问": 7769,
    "逐。": 7770,
    "归期": 7771,
    "暑。": 7772,
    "画船": 7773,
    "，朱": 7774,
    "犹有": 7775,
    "痕。": 7776,
    "中秋": 7777,
    "明年": 7778,
    "谁知": 7779,
    "西陵": 7780,
    "如梦": 7781,
    "翡翠": 7782,
    "洞庭": 7783,
    "烽火": 7784,
    "乾。": 7785,
    "古人": 7786,
    "，開": 7787,
    "，雙": 7788,
    "禋。": 7789,
    "顏。": 7790,
    "絕，": 7791,
    "於天下": 7792,
    "之，是": 7793,
    "》曰：『": 7794,
    "深处，": 7795,
    "天子，": 7796,
    "春色。": 7797,
    "年少。": 7798,
    "时候。": 7799,
    "徘徊。": 7800,
    "乘之": 7801,
    "，王": 7802,
    "，若": 7803,
    "牛羊": 7804,
    "所欲": 7805,
    "，八": 7806,
    "得，": 7807,
    "宇。": 7808,
    "侯。": 7809,
    "，皆": 7810,
    "北，": 7811,
    "，能": 7812,
    "，子": 7813,
    "有餘": 7814,
    "君莫": 7815,
    "二十": 7816,
    "宮中": 7817,
    "紛紛": 7818,
    "人未": 7819,
    "下、": 7820,
    "白，": 7821,
    "白玉": 7822,
    "白馬": 7823,
    "求。": 7824,
    "寐。": 7825,
    "不禁": 7826,
    "，掩": 7827,
    "穆穆": 7828,
    "正是": 7829,
    "宜。": 7830,
    "菱花": 7831,
    "花飞": 7832,
    "泪眼": 7833,
    "潇湘": 7834,
    "西山": 7835,
    "咫尺": 7836,
    "高。": 7837,
    "早晚": 7838,
    "昏。": 7839,
    "向、": 7840,
    "钩。": 7841,
    "彩云": 7842,
    "，问": 7843,
    "银河": 7844,
    "寻芳": 7845,
    "听。": 7846,
    "晓来": 7847,
    "韶光": 7848,
    "被。": 7849,
    "萧索": 7850,
    "嫩。": 7851,
    "觞。": 7852,
    "遇。": 7853,
    "光，": 7854,
    "袖，": 7855,
    "当日": 7856,
    "时时": 7857,
    "何况": 7858,
    "见，": 7859,
    "相将": 7860,
    "银烛": 7861,
    "飞来": 7862,
    "新妆": 7863,
    "人情": 7864,
    "来、": 7865,
    "殿，": 7866,
    "不道": 7867,
    "新月": 7868,
    "望断": 7869,
    "管，": 7870,
    "旧欢": 7871,
    "，碧": 7872,
    "袂。": 7873,
    "舞，": 7874,
    "桥。": 7875,
    "奈何": 7876,
    "淡烟": 7877,
    "塘。": 7878,
    "梦里": 7879,
    "许多": 7880,
    "归路": 7881,
    "宫。": 7882,
    "酒杯": 7883,
    "纱窗": 7884,
    "百尺": 7885,
    "，回": 7886,
    "残红": 7887,
    "共。": 7888,
    "移。": 7889,
    "一尊": 7890,
    "金盏": 7891,
    "红笺": 7892,
    "疑。": 7893,
    "羞。": 7894,
    "三春": 7895,
    "刘郎": 7896,
    "老去": 7897,
    "融。": 7898,
    "姮娥": 7899,
    "广寒": 7900,
    "營。": 7901,
    "典，": 7902,
    "黃河": 7903,
    "儀。": 7904,
    "，紅": 7905,
    "關。": 7906,
    "征戰": 7907,
    "采蓮": 7908,
    "万里，": 7909,
    "流水。": 7910,
    "，今日": 7911,
    "悠悠。": 7912,
    "凄凉。": 7913,
    "行路難": 7914,
    "帘栊。": 7915,
    "孟子對曰：「": 7916,
    "公孫丑": 7917,
    "而民": 7918,
    "義，": 7919,
    "百里": 7920,
    "，可": 7921,
    "仁者": 7922,
    "有不": 7923,
    "小，": 7924,
    "度，": 7925,
    "有道": 7926,
    "，文": 7927,
    "流，": 7928,
    "，西": 7929,
    "悅。": 7930,
    "則不": 7931,
    "吾聞": 7932,
    "此時": 7933,
    "伯夷": 7934,
    "後，": 7935,
    "卿。": 7936,
    "田。": 7937,
    "出入": 7938,
    "難。": 7939,
    "無所": 7940,
    "相向": 7941,
    "為人": 7942,
    "缺。": 7943,
    "敬，": 7944,
    "所惡": 7945,
    "身不": 7946,
    "祥。": 7947,
    "宮，": 7948,
    "性，": 7949,
    "同心": 7950,
    "享，": 7951,
    "出門": 7952,
    "更有": 7953,
    "初。": 7954,
    "樹。": 7955,
    "，嘉": 7956,
    "照，": 7957,
    "功成": 7958,
    "馨。": 7959,
    "倾。": 7960,
    "流年": 7961,
    "愁肠": 7962,
    "一寸": 7963,
    "红楼": 7964,
    "长忆": 7965,
    "忧。": 7966,
    "花满": 7967,
    "殿。": 7968,
    "烟雨": 7969,
    "、玉": 7970,
    "碎。": 7971,
    "百花": 7972,
    "并。": 7973,
    "表。": 7974,
    "约。": 7975,
    "新词": 7976,
    "，还": 7977,
    "凉生": 7978,
    "时、": 7979,
    "心事": 7980,
    "朝云": 7981,
    "几点": 7982,
    "清夜": 7983,
    "，留": 7984,
    "极目": 7985,
    "岁华": 7986,
    "、又": 7987,
    "向晚": 7988,
    "伤春": 7989,
    "从今": 7990,
    "朱阑": 7991,
    "美酒": 7992,
    "小楼": 7993,
    "丛。": 7994,
    "江梅": 7995,
    "留连": 7996,
    "何限": 7997,
    "不胜": 7998,
    "分飞": 7999,
    "双双": 8000,
    "埃。": 8001,
    "珠箔": 8002,
    "暮，": 8003,
    "空自": 8004,
    "潇洒": 8005,
    "瑶台": 8006,
    "月中": 8007,
    "书。": 8008,
    "苔。": 8009,
    "角。": 8010,
    "字。": 8011,
    "缘。": 8012,
    "，照": 8013,
    "浮。": 8014,
    "飞花": 8015,
    "池上": 8016,
    "墙。": 8017,
    "牡丹": 8018,
    "欲问": 8019,
    "旋。": 8020,
    "总是": 8021,
    "不解": 8022,
    "莫教": 8023,
    "改。": 8024,
    "珠。": 8025,
    "水晶": 8026,
    "翠袖": 8027,
    "青天": 8028,
    "相如": 8029,
    "床。": 8030,
    "叢。": 8031,
    "驚。": 8032,
    "由來": 8033,
    "鳳皇": 8034,
    "也，而": 8035,
    "也，非": 8036,
    "者，其": 8037,
    "人者，": 8038,
    "君子，": 8039,
    "肠断。": 8040,
    "断肠。": 8041,
    "政，": 8042,
    "五十": 8043,
    "止。": 8044,
    "，直": 8045,
    "異於": 8046,
    "為其": 8047,
    "焉；": 8048,
    "妻子": 8049,
    "如有": 8050,
    "誰能": 8051,
    "禽獸": 8052,
    "子以": 8053,
    "上帝": 8054,
    "君臣": 8055,
    "而無": 8056,
    "左右": 8057,
    "，北": 8058,
    "安。": 8059,
    "君不": 8060,
    "不待": 8061,
    "，誰": 8062,
    "立，": 8063,
    "我欲": 8064,
    "子思": 8065,
    "動，": 8066,
    "堯之": 8067,
    "目。": 8068,
    "》。": 8069,
    "化，": 8070,
    "哉。": 8071,
    "好事": 8072,
    "旌。": 8073,
    "遊。": 8074,
    "巧。": 8075,
    "虛。": 8076,
    "赫赫": 8077,
    "，南": 8078,
    "瑶池": 8079,
    "玉壶": 8080,
    "袅。": 8081,
    "轻寒": 8082,
    "处处": 8083,
    "阁。": 8084,
    "波，": 8085,
    "檀板": 8086,
    "误。": 8087,
    "砌。": 8088,
    "掷。": 8089,
    "黄菊": 8090,
    "行乐": 8091,
    "寻思": 8092,
    "与。": 8093,
    "粉，": 8094,
    "西江": 8095,
    "海上": 8096,
    "黄鹂": 8097,
    "情绪": 8098,
    "临风": 8099,
    "峰。": 8100,
    "却。": 8101,
    "游人": 8102,
    "翠幕": 8103,
    "音尘": 8104,
    "踏青": 8105,
    "争奈": 8106,
    "不肯": 8107,
    "个、": 8108,
    "天边": 8109,
    "凝。": 8110,
    "声声": 8111,
    "，闲": 8112,
    "，为": 8113,
    "好景": 8114,
    "无凭": 8115,
    "期，": 8116,
    "悄。": 8117,
    "梦断": 8118,
    "早是": 8119,
    "麽。": 8120,
    "凤楼": 8121,
    "，断": 8122,
    "国。": 8123,
    "江天": 8124,
    "彼此": 8125,
    "伫。": 8126,
    "怅望": 8127,
    "回廊": 8128,
    "花谢": 8129,
    "千骑": 8130,
    "沈。": 8131,
    "闲倚": 8132,
    "羽，": 8133,
    "雕鞍": 8134,
    "鸳衾": 8135,
    "能几": 8136,
    "腰。": 8137,
    "一生": 8138,
    "画桥": 8139,
    "二八": 8140,
    "平沙": 8141,
    "，皇": 8142,
    "箭。": 8143,
    "飘零": 8144,
    "淡月": 8145,
    "枕上": 8146,
    "扉。": 8147,
    "花下": 8148,
    "看花": 8149,
    "，笑": 8150,
    "惊。": 8151,
    "花间": 8152,
    "金鞍": 8153,
    "醉中": 8154,
    "会。": 8155,
    "闷。": 8156,
    "留得": 8157,
    "斑。": 8158,
    "闻道": 8159,
    "雄。": 8160,
    "句。": 8161,
    "何用": 8162,
    "荒。": 8163,
    "場。": 8164,
    "薦。": 8165,
    "揚。": 8166,
    "當時": 8167,
    "邊。": 8168,
    "長門": 8169,
    "絲。": 8170,
    "蒼蒼": 8171,
    "絕。": 8172,
    "蕭蕭": 8173,
    "青樓": 8174,
    "隴頭": 8175,
    "門前": 8176,
    "也。故": 8177,
    "，不能": 8178,
    "也，則": 8179,
    "深处。": 8180,
    "不知。": 8181,
    "如水。": 8182,
    "，年年": 8183,
    "阑干。": 8184,
    "不足。": 8185,
    "庭院。": 8186,
    "此之謂": 8187,
    "《詩》云：「": 8188,
    "何處？": 8189,
    "茫茫。": 8190,
    "如之何": 8191,
    "無疆。": 8192,
    "之人": 8193,
    "食，": 8194,
    "，願": 8195,
    "，使": 8196,
    "百姓": 8197,
    "若是": 8198,
    "位，": 8199,
    "耳。": 8200,
    "與人": 8201,
    "車馬": 8202,
    "為大": 8203,
    "干戈": 8204,
    "所謂": 8205,
    "不勝": 8206,
    "廟，": 8207,
    "曾子": 8208,
    "上、": 8209,
    "以其": 8210,
    "市。": 8211,
    "未知": 8212,
    "是非": 8213,
    "側，": 8214,
    "，古": 8215,
    "及其": 8216,
    "齊。": 8217,
    "，先": 8218,
    "冠。": 8219,
    "平，": 8220,
    "，楚": 8221,
    "節。": 8222,
    "自是": 8223,
    "車。": 8224,
    "靜，": 8225,
    "，時": 8226,
    "，羽": 8227,
    "天际": 8228,
    "缀。": 8229,
    "片片": 8230,
    "无语": 8231,
    "彻。": 8232,
    "，拂": 8233,
    "换。": 8234,
    "院。": 8235,
    "何日": 8236,
    "岛。": 8237,
    "两两": 8238,
    "江水": 8239,
    "梦觉": 8240,
    "浮动": 8241,
    "淡，": 8242,
    "菊花": 8243,
    "起来": 8244,
    "石榴": 8245,
    "，化": 8246,
    "孤城": 8247,
    "屈指": 8248,
    "归时": 8249,
    "几多": 8250,
    "危楼": 8251,
    "宋玉": 8252,
    "碧，": 8253,
    "踪。": 8254,
    "聚散": 8255,
    "应是": 8256,
    "夜深": 8257,
    "阳。": 8258,
    "有、": 8259,
    "当筵": 8260,
    "观。": 8261,
    "陌，": 8262,
    "绣。": 8263,
    "兰堂": 8264,
    "尽、": 8265,
    "锦字": 8266,
    "冉冉": 8267,
    "敧枕": 8268,
    "静，": 8269,
    "也应": 8270,
    "良夜": 8271,
    "东篱": 8272,
    "，奈": 8273,
    "红颜": 8274,
    "妙。": 8275,
    "绮罗": 8276,
    "有个": 8277,
    "看，": 8278,
    "一枕": 8279,
    "一叶": 8280,
    "细细": 8281,
    "凭高": 8282,
    "韶华": 8283,
    "几处": 8284,
    "精神": 8285,
    "颦。": 8286,
    "消魂": 8287,
    "端。": 8288,
    "数声": 8289,
    "肌肤": 8290,
    "遥。": 8291,
    "莫道": 8292,
    "一般": 8293,
    "屏。": 8294,
    "双蛾": 8295,
    "笛。": 8296,
    "清光": 8297,
    "鼓吹": 8298,
    "奇。": 8299,
    "酩酊": 8300,
    "程。": 8301,
    "长江": 8302,
    "窗外": 8303,
    "，见": 8304,
    "都。": 8305,
    "高下": 8306,
    "省。": 8307,
    "懒。": 8308,
    "巾。": 8309,
    "采菱": 8310,
    "花不": 8311,
    "晖。": 8312,
    "渡。": 8313,
    "谁道": 8314,
    "窗。": 8315,
    "忙。": 8316,
    "莺。": 8317,
    "春衫": 8318,
    "待得": 8319,
    "阵。": 8320,
    "华堂": 8321,
    "裘。": 8322,
    "娟娟": 8323,
    "锺。": 8324,
    "华发": 8325,
    "肥。": 8326,
    "承恩": 8327,
    "今已": 8328,
    "尾。": 8329,
    "滅。": 8330,
    "連。": 8331,
    "葉，": 8332,
    "輪。": 8333,
    "書。": 8334,
    "語。": 8335,
    "借問": 8336,
    "靈。": 8337,
    "寧。": 8338,
    "顦顇": 8339,
    "男兒": 8340,
    "，不得": 8341,
    "者也；": 8342,
    "，何如": 8343,
    "之矣。": 8344,
    "尊前。": 8345,
    "不得。": 8346,
    "之心，": 8347,
    "，月明": 8348,
    "，芙蓉": 8349,
    "芙蓉。": 8350,
    "无限。": 8351,
    "知何处。": 8352,
    "，何也？」": 8353,
    "情绪。": 8354,
    "难忘。": 8355,
    "相忆。": 8356,
    "亦有": 8357,
    "此，": 8358,
    "雖有": 8359,
    "失其": 8360,
    "田，": 8361,
    "者不": 8362,
    "無以": 8363,
    "以事": 8364,
    "齊宣": 8365,
    "可得": 8366,
    "。夫": 8367,
    "必有": 8368,
    "音，": 8369,
    "父子": 8370,
    "孤。": 8371,
    "室，": 8372,
    "國家": 8373,
    "齊人": 8374,
    "之者": 8375,
    "如水": 8376,
    "命。": 8377,
    "，思": 8378,
    "皆有": 8379,
    "豈不": 8380,
    "利。": 8381,
    "人如": 8382,
    "何足": 8383,
    "，坐": 8384,
    "志。": 8385,
    "興，": 8386,
    "及至": 8387,
    "，妾": 8388,
    "成，": 8389,
    "急。": 8390,
    "春秋": 8391,
    "，載": 8392,
    "，帝": 8393,
    "琴。": 8394,
    "天不": 8395,
    "主，": 8396,
    "與君": 8397,
    "白雪": 8398,
    "口。": 8399,
    "是人": 8400,
    "血。": 8401,
    "，兩": 8402,
    "，爭": 8403,
    "須臾": 8404,
    "，旋": 8405,
    "宇，": 8406,
    "碧天": 8407,
    "青梅": 8408,
    "馀香": 8409,
    "杳。": 8410,
    "节。": 8411,
    "束。": 8412,
    "钱塘": 8413,
    "来无": 8414,
    "门前": 8415,
    "阆苑": 8416,
    "灭。": 8417,
    "熟。": 8418,
    "真珠": 8419,
    "无心": 8420,
    "格。": 8421,
    "春梦": 8422,
    "秋色": 8423,
    "浮名": 8424,
    "，乍": 8425,
    "取次": 8426,
    "溶溶": 8427,
    "酌。": 8428,
    "粉。": 8429,
    "皇。": 8430,
    "炉香": 8431,
    "是处": 8432,
    "离人": 8433,
    "画阁": 8434,
    "前事": 8435,
    "偶。": 8436,
    "为伊": 8437,
    "双眉": 8438,
    "，素": 8439,
    "花阴": 8440,
    "翻成": 8441,
    "吐。": 8442,
    "价。": 8443,
    "马。": 8444,
    "陌。": 8445,
    "耿耿": 8446,
    "瑞。": 8447,
    "金缕": 8448,
    "留恋": 8449,
    "潋滟": 8450,
    "烟水": 8451,
    "几许": 8452,
    "薰风": 8453,
    "列，": 8454,
    "滴。": 8455,
    "红袖": 8456,
    "看看": 8457,
    "馆。": 8458,
    "艳阳": 8459,
    "微雨": 8460,
    "，手": 8461,
    "五陵": 8462,
    "温柔": 8463,
    "依稀": 8464,
    "年来": 8465,
    "润。": 8466,
    "绵。": 8467,
    "颜。": 8468,
    "畔，": 8469,
    "涯。": 8470,
    "鼓，": 8471,
    "绿鬓": 8472,
    "意、": 8473,
    "乐。": 8474,
    "红尘": 8475,
    "寂寥": 8476,
    "绕。": 8477,
    "有时": 8478,
    "洗。": 8479,
    "，仙": 8480,
    "尊酒": 8481,
    "恶。": 8482,
    "凤。": 8483,
    "回头": 8484,
    "令人": 8485,
    "春意": 8486,
    "云垂": 8487,
    "城南": 8488,
    "细雨": 8489,
    "堤。": 8490,
    "莲。": 8491,
    "阴阴": 8492,
    "溪。": 8493,
    "霏。": 8494,
    "漫。": 8495,
    "付与": 8496,
    "楼下": 8497,
    "月照": 8498,
    "双飞": 8499
  },
  "merges": [
    [
      "曰",
      "："
    ],
    [
      "曰：",
      "「"
    ],
    [
      "也",
      "。"
    ],
    [
      "，",
      "不"
    ],
    [
      "也",
      "，"
    ],
    [
      "者",
      "，"
    ],
    [
      "孟",
      "子"
    ],
    [
      "？",
      "」"
    ],
    [
      "，",
      "一"
    ],
    [
      "。",
      "」"
    ],
    [
      "，",
      "則"
    ],
    [
      "去",
      "。"
    ],
    [
      "人",
      "，"
    ],
    [
      "天",
      "下"
    ],
    [
      "人",
      "。"
    ],
    [
      "之",
      "，"
    ],
    [
      "处",
      "。"
    ],
    [
      "孟子",
      "曰：「"
    ],
    [
      "曰：",
      "『"
    ],
    [
      "相",
      "思"
    ],
    [
      "处",
      "，"
    ],
    [
      "也",
      "；"
    ],
    [
      "，",
      "何"
    ],
    [
      "月",
      "，"
    ],
    [
      "里",
      "，"
    ],
    [
      "雨",
      "。"
    ],
    [
      "也。",
      "」"
    ],
    [
      "去",
      "，"
    ],
    [
      "事",
      "，"
    ],
    [
      "时",
      "。"
    ],
    [
      "春",
      "。"
    ],
    [
      "中",
      "。"
    ],
    [
      "香",
      "。"
    ],
    [
      "子",
      "，"
    ],
    [
      "而",
      "不"
    ],
    [
      "江",
      "南"
    ],
    [
      "上",
      "，"
    ],
    [
      "路",
      "。"
    ],
    [
      "千",
      "里"
    ],
    [
      "情",
      "。"
    ],
    [
      "矣",
      "。"
    ],
    [
      "道",
      "，"
    ],
    [
      "天",
      "。"
    ],
    [
      "水",
      "，"
    ],
    [
      "东",
      "风"
    ],
    [
      "不",
      "可"
    ],
    [
      "君",
      "子"
    ],
    [
      "明",
      "月"
    ],
    [
      "，",
      "玉"
    ],
    [
      "老",
      "。"
    ],
    [
      "衣",
      "。"
    ],
    [
      "，",
      "天"
    ],
    [
      "，",
      "人"
    ],
    [
      "不",
      "知"
    ],
    [
      "日",
      "，"
    ],
    [
      "相",
      "逢"
    ],
    [
      "光",
      "。"
    ],
    [
      "明",
      "。"
    ],
    [
      "之",
      "。"
    ],
    [
      "年",
      "。"
    ],
    [
      "风",
      "流"
    ],
    [
      "语",
      "。"
    ],
    [
      "春",
      "风"
    ],
    [
      "归",
      "来"
    ],
    [
      "行",
      "。"
    ],
    [
      "水",
      "。"
    ],
    [
      "人",
      "之"
    ],
    [
      "，",
      "花"
    ],
    [
      "，",
      "金"
    ],
    [
      "年",
      "年"
    ],
    [
      "空",
      "。"
    ],
    [
      "下",
      "，"
    ],
    [
      "尊",
      "前"
    ],
    [
      "愁",
      "。"
    ],
    [
      "。",
      "』"
    ],
    [
      "德",
      "，"
    ],
    [
      "花",
      "，"
    ],
    [
      "，",
      "有"
    ],
    [
      "意",
      "。"
    ],
    [
      "少",
      "年"
    ],
    [
      "芳",
      "草"
    ],
    [
      "，",
      "更"
    ],
    [
      "心",
      "。"
    ],
    [
      "生",
      "。"
    ],
    [
      "暮",
      "。"
    ],
    [
      "，",
      "無"
    ],
    [
      "里",
      "。"
    ],
    [
      "山",
      "。"
    ],
    [
      "醉",
      "。"
    ],
    [
      "色",
      "，"
    ],
    [
      "月",
      "。"
    ],
    [
      "不",
      "得"
    ],
    [
      "，",
      "今"
    ],
    [
      "同",
      "。"
    ],
    [
      "何",
      "处"
    ],
    [
      "不",
      "見"
    ],
    [
      "好",
      "。"
    ],
    [
      "多",
      "少"
    ],
    [
      "人",
      "间"
    ],
    [
      "住",
      "。"
    ],
    [
      "，",
      "是"
    ],
    [
      "心",
      "，"
    ],
    [
      "，",
      "又"
    ],
    [
      "起",
      "。"
    ],
    [
      "秋",
      "。"
    ],
    [
      "远",
      "。"
    ],
    [
      "飞",
      "。"
    ],
    [
      "新",
      "。"
    ],
    [
      "风",
      "。"
    ],
    [
      "枝",
      "。"
    ],
    [
      "家",
      "。"
    ],
    [
      "红",
      "。"
    ],
    [
      "可",
      "以"
    ],
    [
      "，",
      "莫"
    ],
    [
      "道",
      "。"
    ],
    [
      "知",
      "。"
    ],
    [
      "，",
      "月"
    ],
    [
      "花",
      "。"
    ],
    [
      "期",
      "。"
    ],
    [
      "，",
      "春"
    ],
    [
      "多",
      "情"
    ],
    [
      "回",
      "首"
    ],
    [
      "成",
      "。"
    ],
    [
      "，",
      "无"
    ],
    [
      "晚",
      "。"
    ],
    [
      "归",
      "。"
    ],
    [
      "□",
      "□"
    ],
    [
      "寒",
      "。"
    ],
    [
      "时",
      "，"
    ],
    [
      "落",
      "花"
    ],
    [
      "地",
      "，"
    ],
    [
      "酒",
      "，"
    ],
    [
      "断",
      "。"
    ],
    [
      "流",
      "。"
    ],
    [
      "，",
      "三"
    ],
    [
      "地",
      "。"
    ],
    [
      "酒",
      "。"
    ],
    [
      "，",
      "空"
    ],
    [
      "佳",
      "人"
    ],
    [
      "，",
      "千"
    ],
    [
      "来",
      "。"
    ],
    [
      "长",
      "。"
    ],
    [
      "路",
      "，"
    ],
    [
      "不",
      "能"
    ],
    [
      "在",
      "，"
    ],
    [
      "色",
      "。"
    ],
    [
      "今",
      "日"
    ],
    [
      "風",
      "。"
    ],
    [
      "天",
      "涯"
    ],
    [
      "回",
      "。"
    ],
    [
      "，",
      "自"
    ],
    [
      "孔",
      "子"
    ],
    [
      "，",
      "萬"
    ],
    [
      "平",
      "。"
    ],
    [
      "，",
      "未"
    ],
    [
      "城",
      "。"
    ],
    [
      "聲",
      "。"
    ],
    [
      "黄",
      "昏"
    ],
    [
      "见",
      "。"
    ],
    [
      "，",
      "長"
    ],
    [
      "，",
      "日"
    ],
    [
      "看",
      "。"
    ],
    [
      "阑",
      "干"
    ],
    [
      "所",
      "以"
    ],
    [
      "，",
      "相"
    ],
    [
      "如",
      "今"
    ],
    [
      "深",
      "。"
    ],
    [
      "，",
      "此"
    ],
    [
      "小",
      "。"
    ],
    [
      "清",
      "。"
    ],
    [
      "人",
      "生"
    ],
    [
      "雪",
      "。"
    ],
    [
      "，",
      "而"
    ],
    [
      "，",
      "以"
    ],
    [
      "昨",
      "夜"
    ],
    [
      "芙",
      "蓉"
    ],
    [
      "，",
      "行"
    ],
    [
      "雨",
      "，"
    ],
    [
      "楼",
      "。"
    ],
    [
      "景",
      "，"
    ],
    [
      "乎",
      "？」"
    ],
    [
      "面",
      "。"
    ],
    [
      "依",
      "旧"
    ],
    [
      "起",
      "，"
    ],
    [
      "归",
      "去"
    ],
    [
      "少",
      "。"
    ],
    [
      "歸",
      "。"
    ],
    [
      "笙",
      "歌"
    ],
    [
      "曲",
      "，"
    ],
    [
      "憔",
      "悴"
    ],
    [
      "开",
      "。"
    ],
    [
      "意",
      "，"
    ],
    [
      "，",
      "风"
    ],
    [
      "，",
      "清"
    ],
    [
      "諸",
      "侯"
    ],
    [
      "，",
      "小"
    ],
    [
      "，",
      "水"
    ],
    [
      "客",
      "。"
    ],
    [
      "桃",
      "李"
    ],
    [
      "不",
      "见"
    ],
    [
      "重",
      "。"
    ],
    [
      "浅",
      "。"
    ],
    [
      "，",
      "百"
    ],
    [
      "今",
      "夜"
    ],
    [
      "思",
      "量"
    ],
    [
      "晓",
      "。"
    ],
    [
      "然",
      "。"
    ],
    [
      "声",
      "。"
    ],
    [
      "时",
      "节"
    ],
    [
      "笑",
      "。"
    ],
    [
      "天",
      "气"
    ],
    [
      "《",
      "詩"
    ],
    [
      "后",
      "，"
    ],
    [
      "草",
      "。"
    ],
    [
      "去",
      "年"
    ],
    [
      "《詩",
      "》"
    ],
    [
      "，",
      "我"
    ],
    [
      "无",
      "限"
    ],
    [
      "云",
      "。"
    ],
    [
      "何",
      "处。"
    ],
    [
      "哉",
      "？"
    ],
    [
      "山",
      "，"
    ],
    [
      "十",
      "二"
    ],
    [
      "头",
      "。"
    ],
    [
      "影",
      "。"
    ],
    [
      "行",
      "人"
    ],
    [
      "，",
      "香"
    ],
    [
      "而",
      "已"
    ],
    [
      "天",
      "子"
    ],
    [
      "来",
      "，"
    ],
    [
      "芳",
      "菲"
    ],
    [
      "天下",
      "之"
    ],
    [
      "，",
      "白"
    ],
    [
      "，",
      "明"
    ],
    [
      "远",
      "，"
    ],
    [
      "碧",
      "。"
    ],
    [
      "无",
      "人"
    ],
    [
      "天",
      "，"
    ],
    [
      "神",
      "。"
    ],
    [
      "迟",
      "。"
    ],
    [
      "后",
      "。"
    ],
    [
      "酒",
      "醒"
    ],
    [
      "当",
      "时"
    ],
    [
      "厌",
      "厌"
    ],
    [
      "一",
      "曲"
    ],
    [
      "多",
      "。"
    ],
    [
      "名",
      "。"
    ],
    [
      "乎",
      "？"
    ],
    [
      "，",
      "如"
    ],
    [
      "老",
      "，"
    ],
    [
      "以",
      "為"
    ],
    [
      "時",
      "。"
    ],
    [
      "神",
      "仙"
    ],
    [
      "春",
      "色"
    ],
    [
      "杨",
      "柳"
    ],
    [
      "寂",
      "寞"
    ],
    [
      "，",
      "其"
    ],
    [
      "，",
      "風"
    ],
    [
      "信",
      "。"
    ],
    [
      "故",
      "人"
    ],
    [
      "早",
      "。"
    ],
    [
      "，",
      "寒"
    ],
    [
      "容",
      "易"
    ],
    [
      "鸳",
      "鸯"
    ],
    [
      "前",
      "。"
    ],
    [
      "断",
      "肠"
    ],
    [
      "焉",
      "。"
    ],
    [
      "流",
      "水"
    ],
    [
      "发",
      "。"
    ],
    [
      "树",
      "。"
    ],
    [
      "迢",
      "迢"
    ],
    [
      "波",
      "。"
    ],
    [
      "功",
      "。"
    ],
    [
      "萬",
      "里"
    ],
    [
      "不",
      "足"
    ],
    [
      "，",
      "非"
    ],
    [
      "息",
      "。"
    ],
    [
      "西",
      "。"
    ],
    [
      "好",
      "，"
    ],
    [
      "通",
      "。"
    ],
    [
      "桃",
      "花"
    ],
    [
      "为",
      "谁"
    ],
    [
      "悠",
      "悠"
    ],
    [
      "惟",
      "有"
    ],
    [
      "，",
      "谁"
    ],
    [
      "美",
      "人"
    ],
    [
      "君",
      "王"
    ],
    [
      "長",
      "。"
    ],
    [
      "矣",
      "。」"
    ],
    [
      "子",
      "之"
    ],
    [
      "泪",
      "。"
    ],
    [
      "弦",
      "。"
    ],
    [
      "黃",
      "金"
    ],
    [
      "父",
      "母"
    ],
    [
      "平",
      "生"
    ],
    [
      "几",
      "时"
    ],
    [
      "翠",
      "。"
    ],
    [
      "恨",
      "，"
    ],
    [
      "垂",
      "杨"
    ],
    [
      "遍",
      "。"
    ],
    [
      "暖",
      "。"
    ],
    [
      "满",
      "。"
    ],
    [
      "尽",
      "，"
    ],
    [
      "凉",
      "。"
    ],
    [
      "州",
      "。"
    ],
    [
      "使",
      "君"
    ],
    [
      "也",
      "？」"
    ],
    [
      "度",
      "。"
    ],
    [
      "不",
      "如"
    ],
    [
      "中",
      "，"
    ],
    [
      "落",
      "，"
    ],
    [
      "，",
      "高"
    ],
    [
      "曲",
      "。"
    ],
    [
      "乱",
      "。"
    ],
    [
      "江",
      "上"
    ],
    [
      "一",
      "夜"
    ],
    [
      "了",
      "。"
    ],
    [
      "恨",
      "。"
    ],
    [
      "晚",
      "，"
    ],
    [
      "西",
      "风"
    ],
    [
      "子",
      "曰：「"
    ],
    [
      "君",
      "不見"
    ],
    [
      "其",
      "所"
    ],
    [
      "何",
      "事"
    ],
    [
      "年",
      "，"
    ],
    [
      "容",
      "。"
    ],
    [
      "游",
      "。"
    ],
    [
      "梅",
      "花"
    ],
    [
      "绪",
      "。"
    ],
    [
      "尽",
      "。"
    ],
    [
      "歌",
      "舞"
    ],
    [
      "杯",
      "。"
    ],
    [
      "矣",
      "，"
    ],
    [
      "之",
      "於"
    ],
    [
      "之",
      "所"
    ],
    [
      "四",
      "海"
    ],
    [
      "，",
      "欲"
    ],
    [
      "珠",
      "帘"
    ],
    [
      "庭",
      "院"
    ],
    [
      "分",
      "明"
    ],
    [
      "斜",
      "阳"
    ],
    [
      "，",
      "神"
    ],
    [
      "霜",
      "。"
    ],
    [
      "客",
      "，"
    ],
    [
      "散",
      "。"
    ],
    [
      "，",
      "心"
    ],
    [
      "，",
      "秋"
    ],
    [
      "女",
      "，"
    ],
    [
      "手",
      "。"
    ],
    [
      "近",
      "。"
    ],
    [
      "宴",
      "。"
    ],
    [
      "数",
      "。"
    ],
    [
      "眉",
      "。"
    ],
    [
      "柳",
      "。"
    ],
    [
      "匆",
      "匆"
    ],
    [
      "殷",
      "勤"
    ],
    [
      "月",
      "明"
    ],
    [
      "雪",
      "，"
    ],
    [
      "而",
      "後"
    ],
    [
      "來",
      "。"
    ],
    [
      "王",
      "之"
    ],
    [
      "子",
      "。"
    ],
    [
      "人",
      "不"
    ],
    [
      "行",
      "，"
    ],
    [
      "天",
      "地"
    ],
    [
      "禮",
      "，"
    ],
    [
      "定",
      "。"
    ],
    [
      "画",
      "堂"
    ],
    [
      "醉",
      "，"
    ],
    [
      "千",
      "金"
    ],
    [
      "盈",
      "盈"
    ],
    [
      "芳",
      "。"
    ],
    [
      "，",
      "愁"
    ],
    [
      "草",
      "，"
    ],
    [
      "歌",
      "。"
    ],
    [
      "來",
      "，"
    ],
    [
      "時",
      "，"
    ],
    [
      "怨",
      "。"
    ],
    [
      "笑",
      "，"
    ],
    [
      "别",
      "来"
    ],
    [
      "半",
      "。"
    ],
    [
      "苦",
      "。"
    ],
    [
      "问",
      "。"
    ],
    [
      "飛",
      "。"
    ],
    [
      "問",
      "曰：「"
    ],
    [
      "归",
      "去。"
    ],
    [
      "不",
      "似"
    ],
    [
      "宮",
      "。"
    ],
    [
      "如",
      "此"
    ],
    [
      "自",
      "有"
    ],
    [
      "有",
      "人"
    ],
    [
      "情",
      "，"
    ],
    [
      "望",
      "，"
    ],
    [
      "將",
      "軍"
    ],
    [
      "味",
      "。"
    ],
    [
      "细",
      "。"
    ],
    [
      "，",
      "长"
    ],
    [
      "，",
      "山"
    ],
    [
      "影",
      "，"
    ],
    [
      "许",
      "。"
    ],
    [
      "《詩》",
      "云"
    ],
    [
      "之",
      "謂"
    ],
    [
      "身",
      "。"
    ],
    [
      "思",
      "，"
    ],
    [
      "得",
      "。"
    ],
    [
      "，",
      "云"
    ],
    [
      "沈",
      "沈"
    ],
    [
      "别",
      "。"
    ],
    [
      "间",
      "。"
    ],
    [
      "仙",
      "。"
    ],
    [
      "绝",
      "。"
    ],
    [
      "一",
      "枝"
    ],
    [
      "琵",
      "琶"
    ],
    [
      "那",
      "堪"
    ],
    [
      "长",
      "安"
    ],
    [
      "当",
      "年"
    ],
    [
      "落",
      "。"
    ],
    [
      "肠",
      "断"
    ],
    [
      "留",
      "。"
    ],
    [
      "台",
      "。"
    ],
    [
      "也。",
      "』"
    ],
    [
      "，",
      "故"
    ],
    [
      "不",
      "相"
    ],
    [
      "士",
      "，"
    ],
    [
      "燕",
      "。"
    ],
    [
      "，",
      "禮"
    ],
    [
      "，",
      "望"
    ],
    [
      "如",
      "何"
    ],
    [
      "夜",
      "，"
    ],
    [
      "绿",
      "。"
    ],
    [
      "记",
      "得"
    ],
    [
      "瘦",
      "。"
    ],
    [
      "稀",
      "。"
    ],
    [
      "，",
      "青"
    ],
    [
      "妆",
      "。"
    ],
    [
      "花",
      "前"
    ],
    [
      "塵",
      "。"
    ],
    [
      "春",
      "風"
    ],
    [
      "，",
      "五"
    ],
    [
      "否",
      "。"
    ],
    [
      "，",
      "大"
    ],
    [
      "上",
      "。"
    ],
    [
      "不",
      "成"
    ],
    [
      "，",
      "尽"
    ],
    [
      "舟",
      "。"
    ],
    [
      "，",
      "只"
    ],
    [
      "，",
      "新"
    ],
    [
      "浓",
      "。"
    ],
    [
      "夕",
      "阳"
    ],
    [
      "，",
      "红"
    ],
    [
      "低",
      "。"
    ],
    [
      "相思",
      "。"
    ],
    [
      "《詩》云",
      "："
    ],
    [
      "焉",
      "，"
    ],
    [
      "然",
      "後"
    ],
    [
      "微",
      "。"
    ],
    [
      "，",
      "夜"
    ],
    [
      "魂",
      "。"
    ],
    [
      "睡",
      "。"
    ],
    [
      "露",
      "。"
    ],
    [
      "垂",
      "。"
    ],
    [
      "往",
      "事"
    ],
    [
      "闲",
      "。"
    ],
    [
      "过",
      "。"
    ],
    [
      "而",
      "今"
    ],
    [
      "悲",
      "。"
    ],
    [
      "者",
      "也。"
    ],
    [
      "，",
      "樂"
    ],
    [
      "，",
      "流"
    ],
    [
      "休",
      "。"
    ],
    [
      "散",
      "，"
    ],
    [
      "思",
      "。"
    ],
    [
      "歇",
      "。"
    ],
    [
      "卷",
      "。"
    ],
    [
      "玉",
      "。"
    ],
    [
      "船",
      "。"
    ],
    [
      "到",
      "。"
    ],
    [
      "相",
      "见"
    ],
    [
      "东",
      "。"
    ],
    [
      "飞",
      "絮"
    ],
    [
      "袖",
      "。"
    ],
    [
      "，",
      "永"
    ],
    [
      "分",
      "。"
    ],
    [
      "與",
      "？」"
    ],
    [
      "也",
      "？"
    ],
    [
      "國",
      "，"
    ],
    [
      "下",
      "。"
    ],
    [
      "我",
      "，"
    ],
    [
      "，",
      "似"
    ],
    [
      "何",
      "人"
    ],
    [
      "，",
      "方"
    ],
    [
      "久",
      "。"
    ],
    [
      "愁",
      "，"
    ],
    [
      "西",
      "湖"
    ],
    [
      "醒",
      "。"
    ],
    [
      "里",
      "、"
    ],
    [
      "别",
      "后"
    ],
    [
      "户",
      "。"
    ],
    [
      "圆",
      "。"
    ],
    [
      "燕",
      "子"
    ],
    [
      "人",
      "在"
    ],
    [
      "事",
      "。"
    ],
    [
      "外",
      "，"
    ],
    [
      "遠",
      "，"
    ],
    [
      "年",
      "少"
    ],
    [
      "，",
      "便"
    ],
    [
      "池",
      "塘"
    ],
    [
      "帘",
      "幕"
    ],
    [
      "眼",
      "。"
    ],
    [
      "君",
      "恩"
    ],
    [
      "香",
      "，"
    ],
    [
      "时",
      "候"
    ],
    [
      "何",
      "时"
    ],
    [
      "翠",
      "，"
    ],
    [
      "徘",
      "徊"
    ],
    [
      "惆",
      "怅"
    ],
    [
      "春",
      "，"
    ],
    [
      "斜",
      "。"
    ],
    [
      "長",
      "安"
    ],
    [
      "盡",
      "，"
    ],
    [
      "樂",
      "，"
    ],
    [
      "足",
      "以"
    ],
    [
      "不",
      "用"
    ],
    [
      "，",
      "朝"
    ],
    [
      "十",
      "里"
    ],
    [
      "謂",
      "之"
    ],
    [
      "深",
      "，"
    ],
    [
      "十",
      "年"
    ],
    [
      "聚",
      "。"
    ],
    [
      "春",
      "来"
    ],
    [
      "，",
      "绿"
    ],
    [
      "分",
      "付"
    ],
    [
      "静",
      "。"
    ],
    [
      "，",
      "向"
    ],
    [
      "花",
      "枝"
    ],
    [
      "烟",
      "。"
    ],
    [
      "尘",
      "。"
    ],
    [
      "了",
      "，"
    ],
    [
      "明",
      "朝"
    ],
    [
      "啼",
      "。"
    ],
    [
      "今",
      "朝"
    ],
    [
      "陽",
      "。"
    ],
    [
      "何",
      "處"
    ],
    [
      "王",
      "。"
    ],
    [
      "古",
      "之"
    ],
    [
      "短",
      "。"
    ],
    [
      "君",
      "。"
    ],
    [
      "，",
      "正"
    ],
    [
      "，",
      "共"
    ],
    [
      "重",
      "，"
    ],
    [
      "照",
      "。"
    ],
    [
      "岸",
      "。"
    ],
    [
      "天",
      "上"
    ],
    [
      "说",
      "。"
    ],
    [
      "万",
      "里"
    ],
    [
      "黄",
      "花"
    ],
    [
      "，",
      "醉"
    ],
    [
      "缕",
      "。"
    ],
    [
      "年",
      "华"
    ],
    [
      "风",
      "月"
    ],
    [
      "一",
      "点"
    ],
    [
      "把",
      "酒"
    ],
    [
      "梨",
      "花"
    ],
    [
      "收",
      "。"
    ],
    [
      "黄",
      "金"
    ],
    [
      "梅",
      "。"
    ],
    [
      "梦",
      "。"
    ],
    [
      "開",
      "。"
    ],
    [
      "千里",
      "。"
    ],
    [
      "曰",
      "『"
    ],
    [
      "，",
      "惟"
    ],
    [
      "是",
      "故"
    ],
    [
      "之",
      "；"
    ],
    [
      "至",
      "，"
    ],
    [
      "和",
      "。"
    ],
    [
      "，",
      "上"
    ],
    [
      "日",
      "。"
    ],
    [
      "不",
      "堪"
    ],
    [
      "主",
      "。"
    ],
    [
      "倒",
      "。"
    ],
    [
      "折",
      "。"
    ],
    [
      "风",
      "光"
    ],
    [
      "赢",
      "得"
    ],
    [
      "歌",
      "，"
    ],
    [
      "光",
      "阴"
    ],
    [
      "深",
      "院"
    ],
    [
      "秋",
      "千"
    ],
    [
      "侣",
      "。"
    ],
    [
      "清",
      "明"
    ],
    [
      "夜",
      "来"
    ],
    [
      "，",
      "梦"
    ],
    [
      "携",
      "手"
    ],
    [
      "霞",
      "。"
    ],
    [
      "伊",
      "。"
    ],
    [
      "残",
      "。"
    ],
    [
      "还",
      "是"
    ],
    [
      "十",
      "分"
    ],
    [
      "来",
      "时"
    ],
    [
      "有",
      "情"
    ],
    [
      "穷",
      "。"
    ],
    [
      "，",
      "飛"
    ],
    [
      "樹",
      "，"
    ],
    [
      "时节",
      "。"
    ],
    [
      "大",
      "夫"
    ],
    [
      "寒",
      "，"
    ],
    [
      "方",
      "。"
    ],
    [
      "死",
      "。"
    ],
    [
      "朱",
      "颜"
    ],
    [
      "风",
      "吹"
    ],
    [
      "不",
      "须"
    ],
    [
      "、",
      "一"
    ],
    [
      "，",
      "但"
    ],
    [
      "襟",
      "。"
    ],
    [
      "别",
      "离"
    ],
    [
      "，",
      "胡"
    ],
    [
      "还",
      "。"
    ],
    [
      "海",
      "棠"
    ],
    [
      "矣",
      "；"
    ],
    [
      "民",
      "，"
    ],
    [
      "人",
      "有"
    ],
    [
      "三",
      "月"
    ],
    [
      "音",
      "。"
    ],
    [
      "衣",
      "，"
    ],
    [
      "亭",
      "。"
    ],
    [
      "柳",
      "，"
    ],
    [
      "转",
      "。"
    ],
    [
      "，",
      "看"
    ],
    [
      "，",
      "满"
    ],
    [
      "东",
      "君"
    ],
    [
      "无",
      "计"
    ],
    [
      "语",
      "，"
    ],
    [
      "媚",
      "。"
    ],
    [
      "，",
      "翠"
    ],
    [
      "，",
      "却"
    ],
    [
      "深",
      "深"
    ],
    [
      "一",
      "笑"
    ],
    [
      "茫",
      "茫"
    ],
    [
      "佳",
      "期"
    ],
    [
      "薄",
      "。"
    ],
    [
      "梧",
      "桐"
    ],
    [
      "透",
      "。"
    ],
    [
      "胭",
      "脂"
    ],
    [
      "皱",
      "。"
    ],
    [
      "白",
      "日"
    ],
    [
      "雲",
      "。"
    ],
    [
      "无",
      "数。"
    ],
    [
      "多",
      "，"
    ],
    [
      "之",
      "以"
    ],
    [
      "馬",
      "，"
    ],
    [
      "，",
      "且"
    ],
    [
      "乎",
      "！"
    ],
    [
      "，",
      "猶"
    ],
    [
      "有",
      "。"
    ],
    [
      "命",
      "，"
    ],
    [
      "前",
      "，"
    ],
    [
      "素",
      "。"
    ],
    [
      "在",
      "。"
    ],
    [
      "南",
      "山"
    ],
    [
      "，",
      "重"
    ],
    [
      "良",
      "辰"
    ],
    [
      "楼",
      "台"
    ],
    [
      "楼",
      "上"
    ],
    [
      "风",
      "雨"
    ],
    [
      "花",
      "开"
    ],
    [
      "碧",
      "云"
    ],
    [
      "无",
      "情"
    ],
    [
      "此",
      "情"
    ],
    [
      "中",
      "有"
    ],
    [
      "，",
      "孤"
    ],
    [
      "当",
      "初"
    ],
    [
      "，",
      "几"
    ],
    [
      "凄",
      "凉"
    ],
    [
      "白",
      "。"
    ],
    [
      "梦",
      "，"
    ],
    [
      "黄",
      "。"
    ],
    [
      "參",
      "差"
    ],
    [
      "紅",
      "。"
    ],
    [
      "王",
      "曰：「"
    ],
    [
      "之",
      "道"
    ],
    [
      "不",
      "敢"
    ],
    [
      "臣",
      "。"
    ],
    [
      "泉",
      "。"
    ],
    [
      "池",
      "。"
    ],
    [
      "隐",
      "隐"
    ],
    [
      "不",
      "是"
    ],
    [
      "尽",
      "日"
    ],
    [
      "真",
      "。"
    ],
    [
      "夜",
      "夜"
    ],
    [
      "落",
      "日"
    ],
    [
      "依",
      "前"
    ],
    [
      "无",
      "言"
    ],
    [
      "暖",
      "，"
    ],
    [
      "处",
      "、"
    ],
    [
      "红",
      "粉"
    ],
    [
      "扁",
      "舟"
    ],
    [
      "登",
      "临"
    ],
    [
      "结",
      "。"
    ],
    [
      "阑",
      "。"
    ],
    [
      "肠",
      "。"
    ],
    [
      "冷",
      "。"
    ],
    [
      "杨",
      "花"
    ],
    [
      "蛾",
      "眉"
    ],
    [
      "可",
      "怜"
    ],
    [
      "頭",
      "。"
    ],
    [
      "仁",
      "義"
    ],
    [
      "何",
      "以"
    ],
    [
      "文",
      "王"
    ],
    [
      "出",
      "，"
    ],
    [
      "不",
      "忍"
    ],
    [
      "海",
      "，"
    ],
    [
      "不",
      "仁"
    ],
    [
      "畔",
      "。"
    ],
    [
      "一",
      "朝"
    ],
    [
      "，",
      "江"
    ],
    [
      "人",
      "人"
    ],
    [
      "此",
      "时"
    ],
    [
      "杳",
      "杳"
    ],
    [
      "，",
      "歌"
    ],
    [
      "杏",
      "花"
    ],
    [
      "日",
      "暮"
    ],
    [
      "一",
      "声"
    ],
    [
      "青",
      "。"
    ],
    [
      "可",
      "惜"
    ],
    [
      "浦",
      "。"
    ],
    [
      "自",
      "古"
    ],
    [
      "红",
      "日"
    ],
    [
      "管",
      "。"
    ],
    [
      "洲",
      "。"
    ],
    [
      "独",
      "自"
    ],
    [
      "顾",
      "。"
    ],
    [
      "举",
      "。"
    ],
    [
      "清",
      "歌"
    ],
    [
      "行",
      "云"
    ],
    [
      "目",
      "断"
    ],
    [
      "远",
      "山"
    ],
    [
      "画",
      "楼"
    ],
    [
      "千",
      "万"
    ],
    [
      "寒",
      "食"
    ],
    [
      "單",
      "于"
    ],
    [
      "風",
      "吹"
    ],
    [
      "相逢",
      "。"
    ],
    [
      "，",
      "必"
    ],
    [
      "不",
      "為"
    ],
    [
      "七",
      "十"
    ],
    [
      "死",
      "，"
    ],
    [
      "信",
      "，"
    ],
    [
      "與",
      "？"
    ],
    [
      "夫",
      "子"
    ],
    [
      "足",
      "。"
    ],
    [
      "出",
      "。"
    ],
    [
      "氣",
      "，"
    ],
    [
      "窮",
      "。"
    ],
    [
      "堯",
      "舜"
    ],
    [
      "丈",
      "夫"
    ],
    [
      "，",
      "終"
    ],
    [
      "消",
      "。"
    ],
    [
      "外",
      "。"
    ],
    [
      "節",
      "，"
    ],
    [
      "王",
      "孙"
    ],
    [
      "花",
      "落"
    ],
    [
      "南",
      "北"
    ],
    [
      "金",
      "尊"
    ],
    [
      "等",
      "闲"
    ],
    [
      "，",
      "犹"
    ],
    [
      "倚",
      "。"
    ],
    [
      "空",
      "，"
    ],
    [
      "，",
      "争"
    ],
    [
      "功",
      "名"
    ],
    [
      "舞",
      "。"
    ],
    [
      "萧",
      "萧"
    ],
    [
      "阴",
      "。"
    ],
    [
      "，",
      "酒"
    ],
    [
      "世",
      "间"
    ],
    [
      "娟",
      "。"
    ],
    [
      "沙",
      "。"
    ],
    [
      "动",
      "。"
    ],
    [
      "今",
      "年"
    ],
    [
      "清",
      "香"
    ],
    [
      "难",
      "。"
    ],
    [
      "酒",
      "阑"
    ],
    [
      "疑",
      "是"
    ],
    [
      "裏",
      "，"
    ],
    [
      "漢",
      "家"
    ],
    [
      "可",
      "憐"
    ],
    [
      "路",
      "難"
    ],
    [
      "之",
      "。」"
    ],
    [
      "千",
      "里，"
    ],
    [
      "芳草",
      "。"
    ],
    [
      "多少",
      "。"
    ],
    [
      "消",
      "息。"
    ],
    [
      "其",
      "君"
    ],
    [
      "之",
      "不"
    ],
    [
      "是",
      "，"
    ],
    [
      "然",
      "則"
    ],
    [
      "聲",
      "，"
    ],
    [
      "苦",
      "，"
    ],
    [
      "人",
      "皆"
    ],
    [
      "燕",
      "，"
    ],
    [
      "，",
      "柳"
    ],
    [
      "明",
      "日"
    ],
    [
      "無",
      "人"
    ],
    [
      "忘",
      "。"
    ],
    [
      "近",
      "，"
    ],
    [
      "一",
      "杯"
    ],
    [
      "悄",
      "悄"
    ],
    [
      "日",
      "日"
    ],
    [
      "清",
      "风"
    ],
    [
      "梦",
      "魂"
    ],
    [
      "青",
      "山"
    ],
    [
      "迎",
      "。"
    ],
    [
      "只",
      "恐"
    ],
    [
      "白",
      "发"
    ],
    [
      "深",
      "处"
    ],
    [
      "一",
      "片"
    ],
    [
      "重",
      "阳"
    ],
    [
      "凭",
      "谁"
    ],
    [
      "永",
      "，"
    ],
    [
      "帘",
      "栊"
    ],
    [
      "灯",
      "火"
    ],
    [
      "欢",
      "。"
    ],
    [
      "特",
      "地"
    ],
    [
      "相",
      "看"
    ],
    [
      "今",
      "宵"
    ],
    [
      "真",
      "个"
    ],
    [
      "江",
      "山"
    ],
    [
      "说",
      "与"
    ],
    [
      "手",
      "，"
    ],
    [
      "秋",
      "风"
    ],
    [
      "眠",
      "。"
    ],
    [
      "文",
      "章"
    ],
    [
      "从",
      "来"
    ],
    [
      "无",
      "奈"
    ],
    [
      "英",
      "。"
    ],
    [
      "裳",
      "。"
    ],
    [
      "極",
      "，"
    ],
    [
      "，",
      "靈"
    ],
    [
      "，",
      "還"
    ],
    [
      "陳",
      "。"
    ],
    [
      "臺",
      "。"
    ],
    [
      "誰",
      "家"
    ],
    [
      "楊",
      "柳"
    ],
    [
      "，不",
      "如"
    ],
    [
      "何",
      "处，"
    ],
    [
      "為",
      "不"
    ],
    [
      "未",
      "有"
    ],
    [
      "，",
      "豈"
    ],
    [
      "，",
      "深"
    ],
    [
      "兄",
      "弟"
    ],
    [
      "？",
      "』"
    ],
    [
      "生",
      "，"
    ],
    [
      "為",
      "之"
    ],
    [
      "，",
      "從"
    ],
    [
      "三",
      "年"
    ],
    [
      "明",
      "，"
    ],
    [
      "樓",
      "。"
    ],
    [
      "，",
      "半"
    ],
    [
      "，",
      "九"
    ],
    [
      "阳",
      "关"
    ],
    [
      "绿",
      "杨"
    ],
    [
      "芳",
      "心"
    ],
    [
      "望",
      "。"
    ],
    [
      "依",
      "约"
    ],
    [
      "千",
      "古"
    ],
    [
      "扇",
      "。"
    ],
    [
      "力",
      "。"
    ],
    [
      "岁",
      "。"
    ],
    [
      "只",
      "有"
    ],
    [
      "新",
      "声"
    ],
    [
      "枝",
      "上"
    ],
    [
      "无",
      "端"
    ],
    [
      "絮",
      "。"
    ],
    [
      "雨",
      "过"
    ],
    [
      "昼",
      "。"
    ],
    [
      "恼",
      "。"
    ],
    [
      "怎",
      "生"
    ],
    [
      "际",
      "。"
    ],
    [
      "暮",
      "雨"
    ],
    [
      "歌",
      "声"
    ],
    [
      "门",
      "。"
    ],
    [
      "薄",
      "幸"
    ],
    [
      "筵",
      "。"
    ],
    [
      "音",
      "信"
    ],
    [
      "昨",
      "日"
    ],
    [
      "轻",
      "。"
    ],
    [
      "高",
      "楼"
    ],
    [
      "困",
      "。"
    ],
    [
      "无",
      "。"
    ],
    [
      "林",
      "。"
    ],
    [
      "催",
      "。"
    ],
    [
      "征",
      "人"
    ],
    [
      "誠",
      "。"
    ],
    [
      "风流",
      "。"
    ],
    [
      "憔悴",
      "。"
    ],
    [
      "思量",
      "。"
    ],
    [
      "《詩》云：",
      "『"
    ],
    [
      "者",
      "。"
    ],
    [
      "止",
      "，"
    ],
    [
      "何",
      "如"
    ],
    [
      "，",
      "東"
    ],
    [
      "家",
      "，"
    ],
    [
      "，",
      "君"
    ],
    [
      "富",
      "貴"
    ],
    [
      "教",
      "人"
    ],
    [
      "破",
      "。"
    ],
    [
      "物",
      "，"
    ],
    [
      "高",
      "，"
    ],
    [
      "面",
      "，"
    ],
    [
      "，",
      "万"
    ],
    [
      "缥",
      "缈"
    ],
    [
      "依",
      "依"
    ],
    [
      "斜",
      "日"
    ],
    [
      "竹",
      "。"
    ],
    [
      "相",
      "对"
    ],
    [
      "，",
      "暗"
    ],
    [
      "眼",
      "，"
    ],
    [
      "惜",
      "。"
    ],
    [
      "月",
      "华"
    ],
    [
      "第",
      "一"
    ],
    [
      "，",
      "倚"
    ],
    [
      "暮",
      "云"
    ],
    [
      "谁",
      "与"
    ],
    [
      "坐",
      "。"
    ],
    [
      "忆",
      "。"
    ],
    [
      "消",
      "息"
    ],
    [
      "琉",
      "璃"
    ],
    [
      "秀",
      "。"
    ],
    [
      "吟",
      "。"
    ],
    [
      "，",
      "雪"
    ],
    [
      "荷",
      "花"
    ],
    [
      "至",
      "今"
    ],
    [
      "坠",
      "。"
    ],
    [
      "春",
      "光"
    ],
    [
      "雁",
      "。"
    ],
    [
      "就",
      "。"
    ],
    [
      "煙",
      "。"
    ],
    [
      "，",
      "黃"
    ],
    [
      "肅",
      "肅"
    ],
    [
      "間",
      "。"
    ],
    [
      "對",
      "曰：「"
    ],
    [
      "明",
      "月，"
    ],
    [
      "依旧",
      "。"
    ],
    [
      "匆匆",
      "。"
    ],
    [
      "至",
      "於"
    ],
    [
      "我",
      "。"
    ],
    [
      "今",
      "之"
    ],
    [
      "昔",
      "者"
    ],
    [
      "三",
      "十"
    ],
    [
      "久",
      "，"
    ],
    [
      "有",
      "所"
    ],
    [
      "十",
      "五"
    ],
    [
      "處",
      "，"
    ],
    [
      "萬",
      "章"
    ],
    [
      "庭",
      "。"
    ],
    [
      "公",
      "。"
    ],
    [
      "三",
      "千"
    ],
    [
      "合",
      "，"
    ],
    [
      "土",
      "。"
    ],
    [
      "蓬",
      "莱"
    ],
    [
      "，",
      "飞"
    ],
    [
      "纷",
      "纷"
    ],
    [
      "朱",
      "弦"
    ],
    [
      "，",
      "烟"
    ],
    [
      "镜",
      "。"
    ],
    [
      "须",
      "信"
    ],
    [
      "离",
      "愁"
    ],
    [
      "是",
      "、"
    ],
    [
      "，",
      "渐"
    ],
    [
      "，",
      "轻"
    ],
    [
      "寄",
      "。"
    ],
    [
      "月",
      "下"
    ],
    [
      "朦",
      "胧"
    ],
    [
      "几",
      "度"
    ],
    [
      "儿",
      "。"
    ],
    [
      "乡",
      "。"
    ],
    [
      "华",
      "。"
    ],
    [
      "无",
      "处"
    ],
    [
      "与",
      "谁"
    ],
    [
      "翁",
      "。"
    ],
    [
      "万",
      "事"
    ],
    [
      "窈",
      "窕"
    ],
    [
      "青",
      "楼"
    ],
    [
      "一",
      "年"
    ],
    [
      "诗",
      "。"
    ],
    [
      "辰",
      "。"
    ],
    [
      "迷",
      "。"
    ],
    [
      "斷",
      "，"
    ],
    [
      "鳴",
      "。"
    ],
    [
      "關",
      "山"
    ],
    [
      "爲",
      "君"
    ],
    [
      "風",
      "，"
    ],
    [
      "還",
      "。"
    ],
    [
      "歸",
      "來"
    ],
    [
      "鴛",
      "鴦"
    ],
    [
      "归",
      "去，"
    ],
    [
      "，",
      "亦"
    ],
    [
      "，",
      "於"
    ],
    [
      "之",
      "何"
    ],
    [
      "見",
      "，"
    ],
    [
      "枝",
      "，"
    ],
    [
      "玉",
      "，"
    ],
    [
      "，",
      "知"
    ],
    [
      "百",
      "年"
    ],
    [
      "千",
      "萬"
    ],
    [
      "言",
      "，"
    ],
    [
      "草",
      "木"
    ],
    [
      "至",
      "。"
    ],
    [
      "二",
      "月"
    ],
    [
      "夜",
      "。"
    ],
    [
      "鄉",
      "。"
    ],
    [
      "咽",
      "。"
    ],
    [
      "青",
      "青"
    ],
    [
      "烟",
      "波"
    ],
    [
      "主",
      "人"
    ],
    [
      "枝",
      "头"
    ],
    [
      "妍",
      "。"
    ],
    [
      "未",
      "央"
    ],
    [
      "丹",
      "青"
    ],
    [
      "别",
      "有"
    ],
    [
      "绣",
      "帘"
    ],
    [
      "，",
      "露"
    ],
    [
      "云",
      "，"
    ],
    [
      "风",
      "细"
    ],
    [
      "切",
      "。"
    ],
    [
      "日",
      "高"
    ],
    [
      "双",
      "燕"
    ],
    [
      "脉",
      "脉"
    ],
    [
      "裙",
      "。"
    ],
    [
      "明",
      "珠"
    ],
    [
      "寻",
      "。"
    ],
    [
      "女",
      "。"
    ],
    [
      "罗",
      "衣"
    ],
    [
      "才",
      "。"
    ],
    [
      "西",
      "楼"
    ],
    [
      "看",
      "取"
    ],
    [
      "川",
      "。"
    ],
    [
      "離",
      "別"
    ],
    [
      "之",
      "也。"
    ],
    [
      "哉",
      "？」"
    ],
    [
      "春风",
      "。"
    ],
    [
      "不",
      "住。"
    ],
    [
      "孔子",
      "曰：『"
    ],
    [
      "而已",
      "矣。"
    ],
    [
      "與",
      "之"
    ],
    [
      "是",
      "何"
    ],
    [
      "！",
      "」"
    ],
    [
      "，",
      "為"
    ],
    [
      "已",
      "。"
    ],
    [
      "言",
      "。"
    ],
    [
      "知",
      "其"
    ],
    [
      "玉",
      "人"
    ],
    [
      "，",
      "曾"
    ],
    [
      "周",
      "公"
    ],
    [
      "是",
      "。"
    ],
    [
      "，",
      "中"
    ],
    [
      "、",
      "不"
    ],
    [
      "日",
      "月"
    ],
    [
      "，",
      "下"
    ],
    [
      "，",
      "四"
    ],
    [
      "非",
      "。"
    ],
    [
      "，",
      "雨"
    ],
    [
      "，",
      "和"
    ],
    [
      "疆",
      "。"
    ],
    [
      "，",
      "休"
    ],
    [
      "凭",
      "阑"
    ],
    [
      "扫",
      "。"
    ],
    [
      "参",
      "差"
    ],
    [
      "尊",
      "。"
    ],
    [
      "归",
      "，"
    ],
    [
      "犹",
      "未"
    ],
    [
      "雾",
      "。"
    ],
    [
      "隔",
      "。"
    ],
    [
      "，",
      "恨"
    ],
    [
      "长",
      "，"
    ],
    [
      "，",
      "都"
    ],
    [
      "风",
      "，"
    ],
    [
      "闲",
      "愁"
    ],
    [
      "离",
      "恨"
    ],
    [
      "三",
      "五"
    ],
    [
      "迹",
      "。"
    ],
    [
      "伴",
      "。"
    ],
    [
      "一",
      "番"
    ],
    [
      "冷",
      "，"
    ],
    [
      "眉",
      "黛"
    ],
    [
      "露",
      "，"
    ],
    [
      "横",
      "。"
    ],
    [
      "金",
      "。"
    ],
    [
      "青",
      "春"
    ],
    [
      "，",
      "舞"
    ],
    [
      "何",
      "。"
    ],
    [
      "兵",
      "。"
    ],
    [
      "著",
      "。"
    ],
    [
      "梁",
      "。"
    ],
    [
      "狂",
      "。"
    ],
    [
      "茱",
      "萸"
    ],
    [
      "安",
      "得"
    ],
    [
      "吹",
      "。"
    ],
    [
      "巫",
      "山"
    ],
    [
      "芗",
      "林"
    ],
    [
      "遲",
      "。"
    ],
    [
      "秋",
      "風"
    ],
    [
      "浮",
      "雲"
    ],
    [
      "別",
      "離"
    ],
    [
      "，何",
      "处"
    ],
    [
      "天涯",
      "。"
    ],
    [
      "黄昏",
      "。"
    ],
    [
      "无",
      "穷。"
    ],
    [
      "國",
      "之"
    ],
    [
      "，",
      "吾"
    ],
    [
      "歸",
      "，"
    ],
    [
      "，",
      "多"
    ],
    [
      "門",
      "。"
    ],
    [
      "章",
      "。"
    ],
    [
      "先",
      "生"
    ],
    [
      "天",
      "然"
    ],
    [
      "，",
      "尚"
    ],
    [
      "聞",
      "。"
    ],
    [
      "湖",
      "上"
    ],
    [
      "岁",
      "岁"
    ],
    [
      "梦",
      "中"
    ],
    [
      "暗",
      "香"
    ],
    [
      "腰",
      "肢"
    ],
    [
      "醉",
      "乡"
    ],
    [
      "独",
      "倚"
    ],
    [
      "计",
      "。"
    ],
    [
      "，",
      "两"
    ],
    [
      "此",
      "际"
    ],
    [
      "寻",
      "常"
    ],
    [
      "终",
      "日"
    ],
    [
      "昌",
      "。"
    ],
    [
      "长",
      "相"
    ],
    [
      "卷",
      "，"
    ],
    [
      "南",
      "陌"
    ],
    [
      "旧",
      "。"
    ],
    [
      "，",
      "画"
    ],
    [
      "断",
      "，"
    ],
    [
      "个",
      "。"
    ],
    [
      "旧",
      "时"
    ],
    [
      "步",
      "。"
    ],
    [
      "从",
      "此"
    ],
    [
      "乾",
      "坤"
    ],
    [
      "夕",
      "。"
    ],
    [
      "遥",
      "山"
    ],
    [
      "几",
      "回"
    ],
    [
      "云",
      "雨"
    ],
    [
      "今",
      "古"
    ],
    [
      "疏",
      "雨"
    ],
    [
      "向",
      "人"
    ],
    [
      "富",
      "贵"
    ],
    [
      "漠",
      "漠"
    ],
    [
      "晴",
      "。"
    ],
    [
      "陌",
      "上"
    ],
    [
      "游",
      "丝"
    ],
    [
      "边",
      "。"
    ],
    [
      "觉",
      "来"
    ],
    [
      "津",
      "。"
    ],
    [
      "送",
      "。"
    ],
    [
      "红",
      "杏"
    ],
    [
      "门",
      "外"
    ],
    [
      "泥",
      "。"
    ],
    [
      "星",
      "。"
    ],
    [
      "纤",
      "纤"
    ],
    [
      "千",
      "年"
    ],
    [
      "风",
      "雨。"
    ],
    [
      "天气",
      "。"
    ],
    [
      "，",
      "然後"
    ],
    [
      "婵",
      "娟。"
    ],
    [
      "賢",
      "者"
    ],
    [
      "少",
      "，"
    ],
    [
      "輕",
      "。"
    ],
    [
      "於",
      "此"
    ],
    [
      "非",
      "其"
    ],
    [
      "，",
      "好"
    ],
    [
      "堂",
      "。"
    ],
    [
      "於",
      "其"
    ],
    [
      "君",
      "之"
    ],
    [
      "子",
      "、"
    ],
    [
      "，",
      "得"
    ],
    [
      "朝",
      "。"
    ],
    [
      "聖",
      "人"
    ],
    [
      "我",
      "、"
    ],
    [
      "伊",
      "尹"
    ],
    [
      "公",
      "之"
    ],
    [
      "人",
      "心"
    ],
    [
      "親",
      "。"
    ],
    [
      "，",
      "同"
    ],
    [
      "不",
      "及"
    ],
    [
      "比",
      "。"
    ],
    [
      "備",
      "，"
    ],
    [
      "宴",
      "，"
    ],
    [
      "不",
      "信"
    ],
    [
      "高",
      "唐"
    ],
    [
      "回",
      "，"
    ],
    [
      "祀",
      "，"
    ],
    [
      "，",
      "霜"
    ],
    [
      "，",
      "垂"
    ],
    [
      "丽",
      "。"
    ],
    [
      "人",
      "、"
    ],
    [
      "春",
      "水"
    ],
    [
      "宿",
      "。"
    ],
    [
      "临",
      "水"
    ],
    [
      "景",
      "。"
    ],
    [
      "盈",
      "。"
    ],
    [
      "长",
      "亭"
    ],
    [
      "迢",
      "递"
    ],
    [
      "小",
      "院"
    ],
    [
      "绿",
      "阴"
    ],
    [
      "席",
      "。"
    ],
    [
      "冷",
      "落"
    ],
    [
      "玉",
      "楼"
    ],
    [
      "罗",
      "绮"
    ],
    [
      "病",
      "。"
    ],
    [
      "诉",
      "。"
    ],
    [
      "鸿",
      "。"
    ],
    [
      "洞",
      "房"
    ],
    [
      "太",
      "平"
    ],
    [
      "抱",
      "。"
    ],
    [
      "天",
      "与"
    ],
    [
      "妒",
      "。"
    ],
    [
      "调",
      "。"
    ],
    [
      "秋",
      "水"
    ],
    [
      "，",
      "旧"
    ],
    [
      "前",
      "欢"
    ],
    [
      "须",
      "知"
    ],
    [
      "，",
      "初"
    ],
    [
      "云",
      "鬟"
    ],
    [
      "何",
      "妨"
    ],
    [
      "，",
      "六"
    ],
    [
      "泪",
      "，"
    ],
    [
      "关",
      "。"
    ],
    [
      "寿",
      "。"
    ],
    [
      "帘",
      "外"
    ],
    [
      "对",
      "酒"
    ],
    [
      "月",
      "上"
    ],
    [
      "枕",
      "，"
    ],
    [
      "，",
      "乘"
    ],
    [
      "谁",
      "家"
    ],
    [
      "浮",
      "生"
    ],
    [
      "与",
      "君"
    ],
    [
      "，",
      "独"
    ],
    [
      "魂",
      "梦"
    ],
    [
      "重",
      "重"
    ],
    [
      "，",
      "到"
    ],
    [
      "心",
      "情"
    ],
    [
      "郎",
      "。"
    ],
    [
      "晚",
      "来"
    ],
    [
      "谁",
      "能"
    ],
    [
      "何",
      "似"
    ],
    [
      "传",
      "。"
    ],
    [
      "寂",
      "寂"
    ],
    [
      "□",
      "。"
    ],
    [
      "旌",
      "旗"
    ],
    [
      "屋",
      "。"
    ],
    [
      "想",
      "见"
    ],
    [
      "，",
      "含"
    ],
    [
      "河",
      "。"
    ],
    [
      "洛",
      "陽"
    ],
    [
      "輝",
      "。"
    ],
    [
      "，",
      "龍"
    ],
    [
      "裏",
      "。"
    ],
    [
      "宛",
      "轉"
    ],
    [
      "，不",
      "可"
    ],
    [
      "之",
      "，則"
    ],
    [
      "君子",
      "之"
    ],
    [
      "而已",
      "矣。」"
    ],
    [
      "，",
      "庶"
    ],
    [
      "民",
      "之"
    ],
    [
      "之",
      "有"
    ],
    [
      "人",
      "者"
    ],
    [
      "，",
      "因"
    ],
    [
      "國",
      "。"
    ],
    [
      "天",
      "之"
    ],
    [
      "走",
      "馬"
    ],
    [
      "取",
      "。"
    ],
    [
      "，",
      "去"
    ],
    [
      "不",
      "以"
    ],
    [
      "公",
      "孫"
    ],
    [
      "何",
      "曾"
    ],
    [
      "敢",
      "問"
    ],
    [
      "喜",
      "。"
    ],
    [
      "使",
      "人"
    ],
    [
      "相",
      "似"
    ],
    [
      "，",
      "德"
    ],
    [
      "，",
      "道"
    ],
    [
      "門",
      "，"
    ],
    [
      "見",
      "。"
    ],
    [
      "思",
      "君"
    ],
    [
      "世",
      "。"
    ],
    [
      "首",
      "。"
    ],
    [
      "零",
      "落"
    ],
    [
      "又",
      "是"
    ],
    [
      "情",
      "怀"
    ],
    [
      "，",
      "已"
    ],
    [
      "翩",
      "翩"
    ],
    [
      "卮",
      "。"
    ],
    [
      "樱",
      "桃"
    ],
    [
      "蕊",
      "。"
    ],
    [
      "帝",
      "城"
    ],
    [
      "园",
      "林"
    ],
    [
      "，",
      "幽"
    ],
    [
      "得",
      "、"
    ],
    [
      "梦",
      "回"
    ],
    [
      "繁",
      "华"
    ],
    [
      "欢",
      "娱"
    ],
    [
      "永",
      "。"
    ],
    [
      "软",
      "。"
    ],
    [
      "会",
      "，"
    ],
    [
      "霓",
      "裳"
    ],
    [
      "春",
      "睡"
    ],
    [
      "纤",
      "手"
    ],
    [
      "管",
      "弦"
    ],
    [
      "鼓",
      "。"
    ],
    [
      "画",
      "。"
    ],
    [
      "游",
      "，"
    ],
    [
      "底",
      "。"
    ],
    [
      "，",
      "应"
    ],
    [
      "此",
      "去"
    ],
    [
      "如",
      "花"
    ],
    [
      "凌",
      "波"
    ],
    [
      "浪",
      "。"
    ],
    [
      "气",
      "。"
    ],
    [
      "年",
      "时"
    ],
    [
      "，",
      "那"
    ],
    [
      "古",
      "今"
    ],
    [
      "一",
      "去"
    ],
    [
      "眼",
      "前"
    ],
    [
      "风",
      "露"
    ],
    [
      "试",
      "问"
    ],
    [
      "逐",
      "。"
    ],
    [
      "归",
      "期"
    ],
    [
      "暑",
      "。"
    ],
    [
      "画",
      "船"
    ],
    [
      "，",
      "朱"
    ],
    [
      "犹",
      "有"
    ],
    [
      "痕",
      "。"
    ],
    [
      "中",
      "秋"
    ],
    [
      "明",
      "年"
    ],
    [
      "谁",
      "知"
    ],
    [
      "西",
      "陵"
    ],
    [
      "如",
      "梦"
    ],
    [
      "翡",
      "翠"
    ],
    [
      "洞",
      "庭"
    ],
    [
      "烽",
      "火"
    ],
    [
      "乾",
      "。"
    ],
    [
      "古",
      "人"
    ],
    [
      "，",
      "開"
    ],
    [
      "，",
      "雙"
    ],
    [
      "禋",
      "。"
    ],
    [
      "顏",
      "。"
    ],
    [
      "絕",
      "，"
    ],
    [
      "於",
      "天下"
    ],
    [
      "之，",
      "是"
    ],
    [
      "》",
      "曰：『"
    ],
    [
      "深",
      "处，"
    ],
    [
      "天",
      "子，"
    ],
    [
      "春",
      "色。"
    ],
    [
      "年",
      "少。"
    ],
    [
      "时候",
      "。"
    ],
    [
      "徘徊",
      "。"
    ],
    [
      "乘",
      "之"
    ],
    [
      "，",
      "王"
    ],
    [
      "，",
      "若"
    ],
    [
      "牛",
      "羊"
    ],
    [
      "所",
      "欲"
    ],
    [
      "，",
      "八"
    ],
    [
      "得",
      "，"
    ],
    [
      "宇",
      "。"
    ],
    [
      "侯",
      "。"
    ],
    [
      "，",
      "皆"
    ],
    [
      "北",
      "，"
    ],
    [
      "，",
      "能"
    ],
    [
      "，",
      "子"
    ],
    [
      "有",
      "餘"
    ],
    [
      "君",
      "莫"
    ],
    [
      "二",
      "十"
    ],
    [
      "宮",
      "中"
    ],
    [
      "紛",
      "紛"
    ],
    [
      "人",
      "未"
    ],
    [
      "下",
      "、"
    ],
    [
      "白",
      "，"
    ],
    [
      "白",
      "玉"
    ],
    [
      "白",
      "馬"
    ],
    [
      "求",
      "。"
    ],
    [
      "寐",
      "。"
    ],
    [
      "不",
      "禁"
    ],
    [
      "，",
      "掩"
    ],
    [
      "穆",
      "穆"
    ],
    [
      "正",
      "是"
    ],
    [
      "宜",
      "。"
    ],
    [
      "菱",
      "花"
    ],
    [
      "花",
      "飞"
    ],
    [
      "泪",
      "眼"
    ],
    [
      "潇",
      "湘"
    ],
    [
      "西",
      "山"
    ],
    [
      "咫",
      "尺"
    ],
    [
      "高",
      "。"
    ],
    [
      "早",
      "晚"
    ],
    [
      "昏",
      "。"
    ],
    [
      "向",
      "、"
    ],
    [
      "钩",
      "。"
    ],
    [
      "彩",
      "云"
    ],
    [
      "，",
      "问"
    ],
    [
      "银",
      "河"
    ],
    [
      "寻",
      "芳"
    ],
    [
      "听",
      "。"
    ],
    [
      "晓",
      "来"
    ],
    [
      "韶",
      "光"
    ],
    [
      "被",
      "。"
    ],
    [
      "萧",
      "索"
    ],
    [
      "嫩",
      "。"
    ],
    [
      "觞",
      "。"
    ],
    [
      "遇",
      "。"
    ],
    [
      "光",
      "，"
    ],
    [
      "袖",
      "，"
    ],
    [
      "当",
      "日"
    ],
    [
      "时",
      "时"
    ],
    [
      "何",
      "况"
    ],
    [
      "见",
      "，"
    ],
    [
      "相",
      "将"
    ],
    [
      "银",
      "烛"
    ],
    [
      "飞",
      "来"
    ],
    [
      "新",
      "妆"
    ],
    [
      "人",
      "情"
    ],
    [
      "来",
      "、"
    ],
    [
      "殿",
      "，"
    ],
    [
      "不",
      "道"
    ],
    [
      "新",
      "月"
    ],
    [
      "望",
      "断"
    ],
    [
      "管",
      "，"
    ],
    [
      "旧",
      "欢"
    ],
    [
      "，",
      "碧"
    ],
    [
      "袂",
      "。"
    ],
    [
      "舞",
      "，"
    ],
    [
      "桥",
      "。"
    ],
    [
      "奈",
      "何"
    ],
    [
      "淡",
      "烟"
    ],
    [
      "塘",
      "。"
    ],
    [
      "梦",
      "里"
    ],
    [
      "许",
      "多"
    ],
    [
      "归",
      "路"
    ],
    [
      "宫",
      "。"
    ],
    [
      "酒",
      "杯"
    ],
    [
      "纱",
      "窗"
    ],
    [
      "百",
      "尺"
    ],
    [
      "，",
      "回"
    ],
    [
      "残",
      "红"
    ],
    [
      "共",
      "。"
    ],
    [
      "移",
      "。"
    ],
    [
      "一",
      "尊"
    ],
    [
      "金",
      "盏"
    ],
    [
      "红",
      "笺"
    ],
    [
      "疑",
      "。"
    ],
    [
      "羞",
      "。"
    ],
    [
      "三",
      "春"
    ],
    [
      "刘",
      "郎"
    ],
    [
      "老",
      "去"
    ],
    [
      "融",
      "。"
    ],
    [
      "姮",
      "娥"
    ],
    [
      "广",
      "寒"
    ],
    [
      "營",
      "。"
    ],
    [
      "典",
      "，"
    ],
    [
      "黃",
      "河"
    ],
    [
      "儀",
      "。"
    ],
    [
      "，",
      "紅"
    ],
    [
      "關",
      "。"
    ],
    [
      "征",
      "戰"
    ],
    [
      "采",
      "蓮"
    ],
    [
      "万",
      "里，"
    ],
    [
      "流",
      "水。"
    ],
    [
      "，今",
      "日"
    ],
    [
      "悠悠",
      "。"
    ],
    [
      "凄",
      "凉。"
    ],
    [
      "行",
      "路難"
    ],
    [
      "帘栊",
      "。"
    ],
    [
      "孟子",
      "對曰：「"
    ],
    [
      "公孫",
      "丑"
    ],
    [
      "而",
      "民"
    ],
    [
      "義",
      "，"
    ],
    [
      "百",
      "里"
    ],
    [
      "，",
      "可"
    ],
    [
      "仁",
      "者"
    ],
    [
      "有",
      "不"
    ],
    [
      "小",
      "，"
    ],
    [
      "度",
      "，"
    ],
    [
      "有",
      "道"
    ],
    [
      "，",
      "文"
    ],
    [
      "流",
      "，"
    ],
    [
      "，",
      "西"
    ],
    [
      "悅",
      "。"
    ],
    [
      "則",
      "不"
    ],
    [
      "吾",
      "聞"
    ],
    [
      "此",
      "時"
    ],
    [
      "伯",
      "夷"
    ],
    [
      "後",
      "，"
    ],
    [
      "卿",
      "。"
    ],
    [
      "田",
      "。"
    ],
    [
      "出",
      "入"
    ],
    [
      "難",
      "。"
    ],
    [
      "無",
      "所"
    ],
    [
      "相",
      "向"
    ],
    [
      "為",
      "人"
    ],
    [
      "缺",
      "。"
    ],
    [
      "敬",
      "，"
    ],
    [
      "所",
      "惡"
    ],
    [
      "身",
      "不"
    ],
    [
      "祥",
      "。"
    ],
    [
      "宮",
      "，"
    ],
    [
      "性",
      "，"
    ],
    [
      "同",
      "心"
    ],
    [
      "享",
      "，"
    ],
    [
      "出",
      "門"
    ],
    [
      "更",
      "有"
    ],
    [
      "初",
      "。"
    ],
    [
      "樹",
      "。"
    ],
    [
      "，",
      "嘉"
    ],
    [
      "照",
      "，"
    ],
    [
      "功",
      "成"
    ],
    [
      "馨",
      "。"
    ],
    [
      "倾",
      "。"
    ],
    [
      "流",
      "年"
    ],
    [
      "愁",
      "肠"
    ],
    [
      "一",
      "寸"
    ],
    [
      "红",
      "楼"
    ],
    [
      "长",
      "忆"
    ],
    [
      "忧",
      "。"
    ],
    [
      "花",
      "满"
    ],
    [
      "殿",
      "。"
    ],
    [
      "烟",
      "雨"
    ],
    [
      "、",
      "玉"
    ],
    [
      "碎",
      "。"
    ],
    [
      "百",
      "花"
    ],
    [
      "并",
      "。"
    ],
    [
      "表",
      "。"
    ],
    [
      "约",
      "。"
    ],
    [
      "新",
      "词"
    ],
    [
      "，",
      "还"
    ],
    [
      "凉",
      "生"
    ],
    [
      "时",
      "、"
    ],
    [
      "心",
      "事"
    ],
    [
      "朝",
      "云"
    ],
    [
      "几",
      "点"
    ],
    [
      "清",
      "夜"
    ],
    [
      "，",
      "留"
    ],
    [
      "极",
      "目"
    ],
    [
      "岁",
      "华"
    ],
    [
      "、",
      "又"
    ],
    [
      "向",
      "晚"
    ],
    [
      "伤",
      "春"
    ],
    [
      "从",
      "今"
    ],
    [
      "朱",
      "阑"
    ],
    [
      "美",
      "酒"
    ],
    [
      "小",
      "楼"
    ],
    [
      "丛",
      "。"
    ],
    [
      "江",
      "梅"
    ],
    [
      "留",
      "连"
    ],
    [
      "何",
      "限"
    ],
    [
      "不",
      "胜"
    ],
    [
      "分",
      "飞"
    ],
    [
      "双",
      "双"
    ],
    [
      "埃",
      "。"
    ],
    [
      "珠",
      "箔"
    ],
    [
      "暮",
      "，"
    ],
    [
      "空",
      "自"
    ],
    [
      "潇",
      "洒"
    ],
    [
      "瑶",
      "台"
    ],
    [
      "月",
      "中"
    ],
    [
      "书",
      "。"
    ],
    [
      "苔",
      "。"
    ],
    [
      "角",
      "。"
    ],
    [
      "字",
      "。"
    ],
    [
      "缘",
      "。"
    ],
    [
      "，",
      "照"
    ],
    [
      "浮",
      "。"
    ],
    [
      "飞",
      "花"
    ],
    [
      "池",
      "上"
    ],
    [
      "墙",
      "。"
    ],
    [
      "牡",
      "丹"
    ],
    [
      "欲",
      "问"
    ],
    [
      "旋",
      "。"
    ],
    [
      "总",
      "是"
    ],
    [
      "不",
      "解"
    ],
    [
      "莫",
      "教"
    ],
    [
      "改",
      "。"
    ],
    [
      "珠",
      "。"
    ],
    [
      "水",
      "晶"
    ],
    [
      "翠",
      "袖"
    ],
    [
      "青",
      "天"
    ],
    [
      "相",
      "如"
    ],
    [
      "床",
      "。"
    ],
    [
      "叢",
      "。"
    ],
    [
      "驚",
      "。"
    ],
    [
      "由",
      "來"
    ],
    [
      "鳳",
      "皇"
    ],
    [
      "也，",
      "而"
    ],
    [
      "也，",
      "非"
    ],
    [
      "者，",
      "其"
    ],
    [
      "人",
      "者，"
    ],
    [
      "君",
      "子，"
    ],
    [
      "肠",
      "断。"
    ],
    [
      "断肠",
      "。"
    ],
    [
      "政",
      "，"
    ],
    [
      "五",
      "十"
    ],
    [
      "止",
      "。"
    ],
    [
      "，",
      "直"
    ],
    [
      "異",
      "於"
    ],
    [
      "為",
      "其"
    ],
    [
      "焉",
      "；"
    ],
    [
      "妻",
      "子"
    ],
    [
      "如",
      "有"
    ],
    [
      "誰",
      "能"
    ],
    [
      "禽",
      "獸"
    ],
    [
      "子",
      "以"
    ],
    [
      "上",
      "帝"
    ],
    [
      "君",
      "臣"
    ],
    [
      "而",
      "無"
    ],
    [
      "左",
      "右"
    ],
    [
      "，",
      "北"
    ],
    [
      "安",
      "。"
    ],
    [
      "君",
      "不"
    ],
    [
      "不",
      "待"
    ],
    [
      "，",
      "誰"
    ],
    [
      "立",
      "，"
    ],
    [
      "我",
      "欲"
    ],
    [
      "子",
      "思"
    ],
    [
      "動",
      "，"
    ],
    [
      "堯",
      "之"
    ],
    [
      "目",
      "。"
    ],
    [
      "》",
      "。"
    ],
    [
      "化",
      "，"
    ],
    [
      "哉",
      "。"
    ],
    [
      "好",
      "事"
    ],
    [
      "旌",
      "。"
    ],
    [
      "遊",
      "。"
    ],
    [
      "巧",
      "。"
    ],
    [
      "虛",
      "。"
    ],
    [
      "赫",
      "赫"
    ],
    [
      "，",
      "南"
    ],
    [
      "瑶",
      "池"
    ],
    [
      "玉",
      "壶"
    ],
    [
      "袅",
      "。"
    ],
    [
      "轻",
      "寒"
    ],
    [
      "处",
      "处"
    ],
    [
      "阁",
      "。"
    ],
    [
      "波",
      "，"
    ],
    [
      "檀",
      "板"
    ],
    [
      "误",
      "。"
    ],
    [
      "砌",
      "。"
    ],
    [
      "掷",
      "。"
    ],
    [
      "黄",
      "菊"
    ],
    [
      "行",
      "乐"
    ],
    [
      "寻",
      "思"
    ],
    [
      "与",
      "。"
    ],
    [
      "粉",
      "，"
    ],
    [
      "西",
      "江"
    ],
    [
      "海",
      "上"
    ],
    [
      "黄",
      "鹂"
    ],
    [
      "情",
      "绪"
    ],
    [
      "临",
      "风"
    ],
    [
      "峰",
      "。"
    ],
    [
      "却",
      "。"
    ],
    [
      "游",
      "人"
    ],
    [
      "翠",
      "幕"
    ],
    [
      "音",
      "尘"
    ],
    [
      "踏",
      "青"
    ],
    [
      "争",
      "奈"
    ],
    [
      "不",
      "肯"
    ],
    [
      "个",
      "、"
    ],
    [
      "天",
      "边"
    ],
    [
      "凝",
      "。"
    ],
    [
      "声",
      "声"
    ],
    [
      "，",
      "闲"
    ],
    [
      "，",
      "为"
    ],
    [
      "好",
      "景"
    ],
    [
      "无",
      "凭"
    ],
    [
      "期",
      "，"
    ],
    [
      "悄",
      "。"
    ],
    [
      "梦",
      "断"
    ],
    [
      "早",
      "是"
    ],
    [
      "麽",
      "。"
    ],
    [
      "凤",
      "楼"
    ],
    [
      "，",
      "断"
    ],
    [
      "国",
      "。"
    ],
    [
      "江",
      "天"
    ],
    [
      "彼",
      "此"
    ],
    [
      "伫",
      "。"
    ],
    [
      "怅",
      "望"
    ],
    [
      "回",
      "廊"
    ],
    [
      "花",
      "谢"
    ],
    [
      "千",
      "骑"
    ],
    [
      "沈",
      "。"
    ],
    [
      "闲",
      "倚"
    ],
    [
      "羽",
      "，"
    ],
    [
      "雕",
      "鞍"
    ],
    [
      "鸳",
      "衾"
    ],
    [
      "能",
      "几"
    ],
    [
      "腰",
      "。"
    ],
    [
      "一",
      "生"
    ],
    [
      "画",
      "桥"
    ],
    [
      "二",
      "八"
    ],
    [
      "平",
      "沙"
    ],
    [
      "，",
      "皇"
    ],
    [
      "箭",
      "。"
    ],
    [
      "飘",
      "零"
    ],
    [
      "淡",
      "月"
    ],
    [
      "枕",
      "上"
    ],
    [
      "扉",
      "。"
    ],
    [
      "花",
      "下"
    ],
    [
      "看",
      "花"
    ],
    [
      "，",
      "笑"
    ],
    [
      "惊",
      "。"
    ],
    [
      "花",
      "间"
    ],
    [
      "金",
      "鞍"
    ],
    [
      "醉",
      "中"
    ],
    [
      "会",
      "。"
    ],
    [
      "闷",
      "。"
    ],
    [
      "留",
      "得"
    ],
    [
      "斑",
      "。"
    ],
    [
      "闻",
      "道"
    ],
    [
      "雄",
      "。"
    ],
    [
      "句",
      "。"
    ],
    [
      "何",
      "用"
    ],
    [
      "荒",
      "。"
    ],
    [
      "場",
      "。"
    ],
    [
      "薦",
      "。"
    ],
    [
      "揚",
      "。"
    ],
    [
      "當",
      "時"
    ],
    [
      "邊",
      "。"
    ],
    [
      "長",
      "門"
    ],
    [
      "絲",
      "。"
    ],
    [
      "蒼",
      "蒼"
    ],
    [
      "絕",
      "。"
    ],
    [
      "蕭",
      "蕭"
    ],
    [
      "青",
      "樓"
    ],
    [
      "隴",
      "頭"
    ],
    [
      "門",
      "前"
    ],
    [
      "也。",
      "故"
    ],
    [
      "，不",
      "能"
    ],
    [
      "也，",
      "則"
    ],
    [
      "深",
      "处。"
    ],
    [
      "不知",
      "。"
    ],
    [
      "如",
      "水。"
    ],
    [
      "，",
      "年年"
    ],
    [
      "阑干",
      "。"
    ],
    [
      "不足",
      "。"
    ],
    [
      "庭院",
      "。"
    ],
    [
      "此",
      "之謂"
    ],
    [
      "《詩》云：",
      "「"
    ],
    [
      "何處",
      "？"
    ],
    [
      "茫茫",
      "。"
    ],
    [
      "如",
      "之何"
    ],
    [
      "無",
      "疆。"
    ],
    [
      "之",
      "人"
    ],
    [
      "食",
      "，"
    ],
    [
      "，",
      "願"
    ],
    [
      "，",
      "使"
    ],
    [
      "百",
      "姓"
    ],
    [
      "若",
      "是"
    ],
    [
      "位",
      "，"
    ],
    [
      "耳",
      "。"
    ],
    [
      "與",
      "人"
    ],
    [
      "車",
      "馬"
    ],
    [
      "為",
      "大"
    ],
    [
      "干",
      "戈"
    ],
    [
      "所",
      "謂"
    ],
    [
      "不",
      "勝"
    ],
    [
      "廟",
      "，"
    ],
    [
      "曾",
      "子"
    ],
    [
      "上",
      "、"
    ],
    [
      "以",
      "其"
    ],
    [
      "市",
      "。"
    ],
    [
      "未",
      "知"
    ],
    [
      "是",
      "非"
    ],
    [
      "側",
      "，"
    ],
    [
      "，",
      "古"
    ],
    [
      "及",
      "其"
    ],
    [
      "齊",
      "。"
    ],
    [
      "，",
      "先"
    ],
    [
      "冠",
      "。"
    ],
    [
      "平",
      "，"
    ],
    [
      "，",
      "楚"
    ],
    [
      "節",
      "。"
    ],
    [
      "自",
      "是"
    ],
    [
      "車",
      "。"
    ],
    [
      "靜",
      "，"
    ],
    [
      "，",
      "時"
    ],
    [
      "，",
      "羽"
    ],
    [
      "天",
      "际"
    ],
    [
      "缀",
      "。"
    ],
    [
      "片",
      "片"
    ],
    [
      "无",
      "语"
    ],
    [
      "彻",
      "。"
    ],
    [
      "，",
      "拂"
    ],
    [
      "换",
      "。"
    ],
    [
      "院",
      "。"
    ],
    [
      "何",
      "日"
    ],
    [
      "岛",
      "。"
    ],
    [
      "两",
      "两"
    ],
    [
      "江",
      "水"
    ],
    [
      "梦",
      "觉"
    ],
    [
      "浮",
      "动"
    ],
    [
      "淡",
      "，"
    ],
    [
      "菊",
      "花"
    ],
    [
      "起",
      "来"
    ],
    [
      "石",
      "榴"
    ],
    [
      "，",
      "化"
    ],
    [
      "孤",
      "城"
    ],
    [
      "屈",
      "指"
    ],
    [
      "归",
      "时"
    ],
    [
      "几",
      "多"
    ],
    [
      "危",
      "楼"
    ],
    [
      "宋",
      "玉"
    ],
    [
      "碧",
      "，"
    ],
    [
      "踪",
      "。"
    ],
    [
      "聚",
      "散"
    ],
    [
      "应",
      "是"
    ],
    [
      "夜",
      "深"
    ],
    [
      "阳",
      "。"
    ],
    [
      "有",
      "、"
    ],
    [
      "当",
      "筵"
    ],
    [
      "观",
      "。"
    ],
    [
      "陌",
      "，"
    ],
    [
      "绣",
      "。"
    ],
    [
      "兰",
      "堂"
    ],
    [
      "尽",
      "、"
    ],
    [
      "锦",
      "字"
    ],
    [
      "冉",
      "冉"
    ],
    [
      "敧",
      "枕"
    ],
    [
      "静",
      "，"
    ],
    [
      "也",
      "应"
    ],
    [
      "良",
      "夜"
    ],
    [
      "东",
      "篱"
    ],
    [
      "，",
      "奈"
    ],
    [
      "红",
      "颜"
    ],
    [
      "妙",
      "。"
    ],
    [
      "绮",
      "罗"
    ],
    [
      "有",
      "个"
    ],
    [
      "看",
      "，"
    ],
    [
      "一",
      "枕"
    ],
    [
      "一",
      "叶"
    ],
    [
      "细",
      "细"
    ],
    [
      "凭",
      "高"
    ],
    [
      "韶",
      "华"
    ],
    [
      "几",
      "处"
    ],
    [
      "精",
      "神"
    ],
    [
      "颦",
      "。"
    ],
    [
      "消",
      "魂"
    ],
    [
      "端",
      "。"
    ],
    [
      "数",
      "声"
    ],
    [
      "肌",
      "肤"
    ],
    [
      "遥",
      "。"
    ],
    [
      "莫",
      "道"
    ],
    [
      "一",
      "般"
    ],
    [
      "屏",
      "。"
    ],
    [
      "双",
      "蛾"
    ],
    [
      "笛",
      "。"
    ],
    [
      "清",
      "光"
    ],
    [
      "鼓",
      "吹"
    ],
    [
      "奇",
      "。"
    ],
    [
      "酩",
      "酊"
    ],
    [
      "程",
      "。"
    ],
    [
      "长",
      "江"
    ],
    [
      "窗",
      "外"
    ],
    [
      "，",
      "见"
    ],
    [
      "都",
      "。"
    ],
    [
      "高",
      "下"
    ],
    [
      "省",
      "。"
    ],
    [
      "懒",
      "。"
    ],
    [
      "巾",
      "。"
    ],
    [
      "采",
      "菱"
    ],
    [
      "花",
      "不"
    ],
    [
      "晖",
      "。"
    ],
    [
      "渡",
      "。"
    ],
    [
      "谁",
      "道"
    ],
    [
      "窗",
      "。"
    ],
    [
      "忙",
      "。"
    ],
    [
      "莺",
      "。"
    ],
    [
      "春",
      "衫"
    ],
    [
      "待",
      "得"
    ],
    [
      "阵",
      "。"
    ],
    [
      "华",
      "堂"
    ],
    [
      "裘",
      "。"
    ],
    [
      "娟",
      "娟"
    ],
    [
      "锺",
      "。"
    ],
    [
      "华",
      "发"
    ],
    [
      "肥",
      "。"
    ],
    [
      "承",
      "恩"
    ],
    [
      "今",
      "已"
    ],
    [
      "尾",
      "。"
    ],
    [
      "滅",
      "。"
    ],
    [
      "連",
      "。"
    ],
    [
      "葉",
      "，"
    ],
    [
      "輪",
      "。"
    ],
    [
      "書",
      "。"
    ],
    [
      "語",
      "。"
    ],
    [
      "借",
      "問"
    ],
    [
      "靈",
      "。"
    ],
    [
      "寧",
      "。"
    ],
    [
      "顦",
      "顇"
    ],
    [
      "男",
      "兒"
    ],
    [
      "，不",
      "得"
    ],
    [
      "者",
      "也；"
    ],
    [
      "，何",
      "如"
    ],
    [
      "之",
      "矣。"
    ],
    [
      "尊前",
      "。"
    ],
    [
      "不得",
      "。"
    ],
    [
      "之",
      "心，"
    ],
    [
      "，月",
      "明"
    ],
    [
      "，",
      "芙蓉"
    ],
    [
      "芙蓉",
      "。"
    ],
    [
      "无限",
      "。"
    ],
    [
      "知",
      "何处。"
    ],
    [
      "，何",
      "也？」"
    ],
    [
      "情",
      "绪。"
    ],
    [
      "难",
      "忘。"
    ],
    [
      "相",
      "忆。"
    ],
    [
      "亦",
      "有"
    ],
    [
      "此",
      "，"
    ],
    [
      "雖",
      "有"
    ],
    [
      "失",
      "其"
    ],
    [
      "田",
      "，"
    ],
    [
      "者",
      "不"
    ],
    [
      "無",
      "以"
    ],
    [
      "以",
      "事"
    ],
    [
      "齊",
      "宣"
    ],
    [
      "可",
      "得"
    ],
    [
      "。",
      "夫"
    ],
    [
      "必",
      "有"
    ],
    [
      "音",
      "，"
    ],
    [
      "父",
      "子"
    ],
    [
      "孤",
      "。"
    ],
    [
      "室",
      "，"
    ],
    [
      "國",
      "家"
    ],
    [
      "齊",
      "人"
    ],
    [
      "之",
      "者"
    ],
    [
      "如",
      "水"
    ],
    [
      "命",
      "。"
    ],
    [
      "，",
      "思"
    ],
    [
      "皆",
      "有"
    ],
    [
      "豈",
      "不"
    ],
    [
      "利",
      "。"
    ],
    [
      "人",
      "如"
    ],
    [
      "何",
      "足"
    ],
    [
      "，",
      "坐"
    ],
    [
      "志",
      "。"
    ],
    [
      "興",
      "，"
    ],
    [
      "及",
      "至"
    ],
    [
      "，",
      "妾"
    ],
    [
      "成",
      "，"
    ],
    [
      "急",
      "。"
    ],
    [
      "春",
      "秋"
    ],
    [
      "，",
      "載"
    ],
    [
      "，",
      "帝"
    ],
    [
      "琴",
      "。"
    ],
    [
      "天",
      "不"
    ],
    [
      "主",
      "，"
    ],
    [
      "與",
      "君"
    ],
    [
      "白",
      "雪"
    ],
    [
      "口",
      "。"
    ],
    [
      "是",
      "人"
    ],
    [
      "血",
      "。"
    ],
    [
      "，",
      "兩"
    ],
    [
      "，",
      "爭"
    ],
    [
      "須",
      "臾"
    ],
    [
      "，",
      "旋"
    ],
    [
      "宇",
      "，"
    ],
    [
      "碧",
      "天"
    ],
    [
      "青",
      "梅"
    ],
    [
      "馀",
      "香"
    ],
    [
      "杳",
      "。"
    ],
    [
      "节",
      "。"
    ],
    [
      "束",
      "。"
    ],
    [
      "钱",
      "塘"
    ],
    [
      "来",
      "无"
    ],
    [
      "门",
      "前"
    ],
    [
      "阆",
      "苑"
    ],
    [
      "灭",
      "。"
    ],
    [
      "熟",
      "。"
    ],
    [
      "真",
      "珠"
    ],
    [
      "无",
      "心"
    ],
    [
      "格",
      "。"
    ],
    [
      "春",
      "梦"
    ],
    [
      "秋",
      "色"
    ],
    [
      "浮",
      "名"
    ],
    [
      "，",
      "乍"
    ],
    [
      "取",
      "次"
    ],
    [
      "溶",
      "溶"
    ],
    [
      "酌",
      "。"
    ],
    [
      "粉",
      "。"
    ],
    [
      "皇",
      "。"
    ],
    [
      "炉",
      "香"
    ],
    [
      "是",
      "处"
    ],
    [
      "离",
      "人"
    ],
    [
      "画",
      "阁"
    ],
    [
      "前",
      "事"
    ],
    [
      "偶",
      "。"
    ],
    [
      "为",
      "伊"
    ],
    [
      "双",
      "眉"
    ],
    [
      "，",
      "素"
    ],
    [
      "花",
      "阴"
    ],
    [
      "翻",
      "成"
    ],
    [
      "吐",
      "。"
    ],
    [
      "价",
      "。"
    ],
    [
      "马",
      "。"
    ],
    [
      "陌",
      "。"
    ],
    [
      "耿",
      "耿"
    ],
    [
      "瑞",
      "。"
    ],
    [
      "金",
      "缕"
    ],
    [
      "留",
      "恋"
    ],
    [
      "潋",
      "滟"
    ],
    [
      "烟",
      "水"
    ],
    [
      "几",
      "许"
    ],
    [
      "薰",
      "风"
    ],
    [
      "列",
      "，"
    ],
    [
      "滴",
      "。"
    ],
    [
      "红",
      "袖"
    ],
    [
      "看",
      "看"
    ],
    [
      "馆",
      "。"
    ],
    [
      "艳",
      "阳"
    ],
    [
      "微",
      "雨"
    ],
    [
      "，",
      "手"
    ],
    [
      "五",
      "陵"
    ],
    [
      "温",
      "柔"
    ],
    [
      "依",
      "稀"
    ],
    [
      "年",
      "来"
    ],
    [
      "润",
      "。"
    ],
    [
      "绵",
      "。"
    ],
    [
      "颜",
      "。"
    ],
    [
      "畔",
      "，"
    ],
    [
      "涯",
      "。"
    ],
    [
      "鼓",
      "，"
    ],
    [
      "绿",
      "鬓"
    ],
    [
      "意",
      "、"
    ],
    [
      "乐",
      "。"
    ],
    [
      "红",
      "尘"
    ],
    [
      "寂",
      "寥"
    ],
    [
      "绕",
      "。"
    ],
    [
      "有",
      "时"
    ],
    [
      "洗",
      "。"
    ],
    [
      "，",
      "仙"
    ],
    [
      "尊",
      "酒"
    ],
    [
      "恶",
      "。"
    ],
    [
      "凤",
      "。"
    ],
    [
      "回",
      "头"
    ],
    [
      "令",
      "人"
    ],
    [
      "春",
      "意"
    ],
    [
      "云",
      "垂"
    ],
    [
      "城",
      "南"
    ],
    [
      "细",
      "雨"
    ],
    [
      "堤",
      "。"
    ],
    [
      "莲",
      "。"
    ],
    [
      "阴",
      "阴"
    ],
    [
      "溪",
      "。"
    ],
    [
      "霏",
      "。"
    ],
    [
      "漫",
      "。"
    ],
    [
      "付",
      "与"
    ],
    [
      "楼",
      "下"
    ],
    [
      "月",
      "照"
    ],
    [
      "双",
      "飞"
    ]
  ],
  "special_tokens": [
    "<pad>",
    "<bos>",
    "<eos>",
    "<unk>"
  ]
}